{
  "version": "1.0",
  "truncation": null,
  "padding": null,
  "added_tokens": [
    {
      "id": 0,
      "content": "<|pad|>",
      "single_word": false,
      "lstrip": false,
      "rstrip": false,
      "normalized": false,
      "special": true
    },
    {
      "id": 1,
      "content": "<|bos|>",
      "single_word": false,
      "lstrip": false,
      "rstrip": false,
      "normalized": false,
      "special": true
    },
    {
      "id": 2,
      "content": "<|eos|>",
      "single_word": false,
      "lstrip": false,
      "rstrip": false,
      "normalized": false,
      "special": true
    }
  ],
  "normalizer": null,
  "pre_tokenizer": {
    "type": "ByteLevel",
    "add_prefix_space": false,
    "trim_offsets": true,
    "use_regex": true
  },
  "post_processor": {
    "type": "ByteLevel",
    "add_prefix_space": true,
    "trim_offsets": false,
    "use_regex": true
  },
  "decoder": {
    "type": "ByteLevel",
    "add_prefix_space": true,
    "trim_offsets": true,
    "use_regex": true
  },
  "model": {
    "type": "BPE",
    "dropout": null,
    "unk_token": null,
    "continuing_subword_prefix": null,
    "end_of_word_suffix": null,
    "fuse_unk": false,
    "byte_fallback": false,
    "ignore_merges": false,
    "vocab": {
      "<|pad|>": 0,
      "<|bos|>": 1,
      "<|eos|>": 2,
      "!": 3,
      "\"": 4,
      "#": 5,
      "$": 6,
      "%": 7,
      "&": 8,
      "'": 9,
      "(": 10,
      ")": 11,
      "*": 12,
      "+": 13,
      ",": 14,
      "-": 15,
      ".": 16,
      "/": 17,
      "0": 18,
      "1": 19,
      "2": 20,
      "3": 21,
      "4": 22,
      "5": 23,
      "6": 24,
      "7": 25,
      "8": 26,
      "9": 27,
      ":": 28,
      ";": 29,
      "<": 30,
      "=": 31,
      ">": 32,
      "?": 33,
      "@": 34,
      "A": 35,
      "B": 36,
      "C": 37,
      "D": 38,
      "E": 39,
      "F": 40,
      "G": 41,
      "H": 42,
      "I": 43,
      "J": 44,
      "K": 45,
      "L": 46,
      "M": 47,
      "N": 48,
      "O": 49,
      "P": 50,
      "Q": 51,
      "R": 52,
      "S": 53,
      "T": 54,
      "U": 55,
      "V": 56,
      "W": 57,
      "X": 58,
      "Y": 59,
      "Z": 60,
      "[": 61,
      "\\": 62,
      "]": 63,
      "^": 64,
      "_": 65,
      "`": 66,
      "a": 67,
      "b": 68,
      "c": 69,
      "d": 70,
      "e": 71,
      "f": 72,
      "g": 73,
      "h": 74,
      "i": 75,
      "j": 76,
      "k": 77,
      "l": 78,
      "m": 79,
      "n": 80,
      "o": 81,
      "p": 82,
      "q": 83,
      "r": 84,
      "s": 85,
      "t": 86,
      "u": 87,
      "v": 88,
      "w": 89,
      "x": 90,
      "y": 91,
      "z": 92,
      "{": 93,
      "|": 94,
      "}": 95,
      "~": 96,
      "¡": 97,
      "¢": 98,
      "£": 99,
      "¤": 100,
      "¥": 101,
      "¦": 102,
      "§": 103,
      "¨": 104,
      "©": 105,
      "ª": 106,
      "«": 107,
      "¬": 108,
      "®": 109,
      "¯": 110,
      "°": 111,
      "±": 112,
      "²": 113,
      "³": 114,
      "´": 115,
      "µ": 116,
      "¶": 117,
      "·": 118,
      "¸": 119,
      "¹": 120,
      "º": 121,
      "»": 122,
      "¼": 123,
      "½": 124,
      "¾": 125,
      "¿": 126,
      "À": 127,
      "Á": 128,
      "Â": 129,
      "Ã": 130,
      "Ä": 131,
      "Å": 132,
      "Æ": 133,
      "Ç": 134,
      "È": 135,
      "É": 136,
      "Ê": 137,
      "Ë": 138,
      "Ì": 139,
      "Í": 140,
      "Î": 141,
      "Ï": 142,
      "Ð": 143,
      "Ñ": 144,
      "Ò": 145,
      "Ó": 146,
      "Ô": 147,
      "Õ": 148,
      "Ö": 149,
      "×": 150,
      "Ø": 151,
      "Ù": 152,
      "Ú": 153,
      "Û": 154,
      "Ü": 155,
      "Ý": 156,
      "Þ": 157,
      "ß": 158,
      "à": 159,
      "á": 160,
      "â": 161,
      "ã": 162,
      "ä": 163,
      "å": 164,
      "æ": 165,
      "ç": 166,
      "è": 167,
      "é": 168,
      "ê": 169,
      "ë": 170,
      "ì": 171,
      "í": 172,
      "î": 173,
      "ï": 174,
      "ð": 175,
      "ñ": 176,
      "ò": 177,
      "ó": 178,
      "ô": 179,
      "õ": 180,
      "ö": 181,
      "÷": 182,
      "ø": 183,
      "ù": 184,
      "ú": 185,
      "û": 186,
      "ü": 187,
      "ý": 188,
      "þ": 189,
      "ÿ": 190,
      "Ā": 191,
      "ā": 192,
      "Ă": 193,
      "ă": 194,
      "Ą": 195,
      "ą": 196,
      "Ć": 197,
      "ć": 198,
      "Ĉ": 199,
      "ĉ": 200,
      "Ċ": 201,
      "ċ": 202,
      "Č": 203,
      "č": 204,
      "Ď": 205,
      "ď": 206,
      "Đ": 207,
      "đ": 208,
      "Ē": 209,
      "ē": 210,
      "Ĕ": 211,
      "ĕ": 212,
      "Ė": 213,
      "ė": 214,
      "Ę": 215,
      "ę": 216,
      "Ě": 217,
      "ě": 218,
      "Ĝ": 219,
      "ĝ": 220,
      "Ğ": 221,
      "ğ": 222,
      "Ġ": 223,
      "ġ": 224,
      "Ģ": 225,
      "ģ": 226,
      "Ĥ": 227,
      "ĥ": 228,
      "Ħ": 229,
      "ħ": 230,
      "Ĩ": 231,
      "ĩ": 232,
      "Ī": 233,
      "ī": 234,
      "Ĭ": 235,
      "ĭ": 236,
      "Į": 237,
      "į": 238,
      "İ": 239,
      "ı": 240,
      "Ĳ": 241,
      "ĳ": 242,
      "Ĵ": 243,
      "ĵ": 244,
      "Ķ": 245,
      "ķ": 246,
      "ĸ": 247,
      "Ĺ": 248,
      "ĺ": 249,
      "Ļ": 250,
      "ļ": 251,
      "Ľ": 252,
      "ľ": 253,
      "Ŀ": 254,
      "ŀ": 255,
      "Ł": 256,
      "ł": 257,
      "Ń": 258,
      "in": 259,
      "Ġ#": 260,
      "Ġt": 261,
      "Ġa": 262,
      "re": 263,
      "it": 264,
      "he": 265,
      "Ġ$": 266,
      "on": 267,
      "co": 268,
      "er": 269,
      "st": 270,
      "ing": 271,
      "an": 272,
      "Ġb": 273,
      "Ġw": 274,
      "or": 275,
      "is": 276,
      "ar": 277,
      "at": 278,
      "Ġthe": 279,
      "ll": 280,
      "coin": 281,
      "ou": 282,
      "Ġs": 283,
      "ðŁ": 284,
      "Ġf": 285,
      "en": 286,
      "Ġp": 287,
      "Ġm": 288,
      "et": 289,
      "Ġto": 290,
      "to": 291,
      "itcoin": 292,
      "ĠĠ": 293,
      "es": 294,
      "ry": 295,
      "ro": 296,
      "al": 297,
      "nd": 298,
      "Ġh": 299,
      "Ġc": 300,
      "ryp": 301,
      "ed": 302,
      "rypto": 303,
      "Ġo": 304,
      "Ġin": 305,
      "ce": 306,
      "Ġd": 307,
      "Ġl": 308,
      "ve": 309,
      "Ġ@": 310,
      "TC": 311,
      "Ġth": 312,
      "Bitcoin": 313,
      "00": 314,
      "ow": 315,
      "as": 316,
      "Ġis": 317,
      "Ġand": 318,
      "ck": 319,
      "Ġg": 320,
      "Ġn": 321,
      "ay": 322,
      "BTC": 323,
      "ĠI": 324,
      "Ġof": 325,
      "ch": 326,
      "ad": 327,
      "ri": 328,
      "ion": 329,
      "ct": 330,
      "le": 331,
      "Ġy": 332,
      "ur": 333,
      "Ġbe": 334,
      "ĠT": 335,
      "Ġon": 336,
      "am": 337,
      "âĢ": 338,
      "Ġfor": 339,
      "ot": 340,
      "Ġu": 341,
      "Ġre": 342,
      "ent": 343,
      "ol": 344,
      "ver": 345,
      "Ġe": 346,
      "Ġyou": 347,
      "crypto": 348,
      "ĠS": 349,
      "ill": 350,
      "ĠA": 351,
      "Ġ1": 352,
      "ig": 353,
      "ly": 354,
      "ĠðŁ": 355,
      "ĠC": 356,
      "ren": 357,
      "ge": 358,
      "um": 359,
      "..": 360,
      "ir": 361,
      "Ġit": 362,
      "Ġ2": 363,
      "ĠB": 364,
      "ut": 365,
      "se": 366,
      "ĠĠĠĠ": 367,
      "ic": 368,
      "lo": 369,
      "ain": 370,
      "id": 371,
      "me": 372,
      "Ġst": 373,
      "ak": 374,
      "urren": 375,
      "Ġ-": 376,
      "ĠP": 377,
      "un": 378,
      "pp": 379,
      "ect": 380,
      "bitcoin": 381,
      "ps": 382,
      "Ġco": 383,
      "Ġpro": 384,
      "ĠM": 385,
      "ĠĊ": 386,
      "oo": 387,
      "ew": 388,
      "Ġthis": 389,
      "ee": 390,
      "all": 391,
      "ance": 392,
      "art": 393,
      "cy": 394,
      "here": 395,
      "Crypto": 396,
      "ET": 397,
      "ld": 398,
      "ith": 399,
      "rad": 400,
      "FT": 401,
      "out": 402,
      "ort": 403,
      "ĠL": 404,
      "us": 405,
      "ĠW": 406,
      "curren": 407,
      "Ġmo": 408,
      "Ġ(": 409,
      "US": 410,
      "âĢĻ": 411,
      "ht": 412,
      "tc": 413,
      "rice": 414,
      "Ġwith": 415,
      "Ġwill": 416,
      "ark": 417,
      "ĠF": 418,
      "ĠD": 419,
      "Ġat": 420,
      "ap": 421,
      "ft": 422,
      "op": 423,
      "ate": 424,
      "Ġthat": 425,
      "im": 426,
      "ETH": 427,
      "currency": 428,
      "inance": 429,
      "ers": 430,
      "'s": 431,
      "ĠN": 432,
      "Ġan": 433,
      "la": 434,
      "LA": 435,
      "TS": 436,
      "btc": 437,
      "Ġso": 438,
      "arket": 439,
      "one": 440,
      "Ġare": 441,
      "Âł": 442,
      "ust": 443,
      "ive": 444,
      "ity": 445,
      "ation": 446,
      "//": 447,
      "Ġwh": 448,
      "://": 449,
      "Ġha": 450,
      "ĠE": 451,
      "il": 452,
      "ĠH": 453,
      "Ġwe": 454,
      "ul": 455,
      "tps": 456,
      "Ġup": 457,
      "Ġsh": 458,
      "om": 459,
      "uy": 460,
      "ject": 461,
      "ĠR": 462,
      "oin": 463,
      "Ġv": 464,
      "USD": 465,
      "IN": 466,
      "TSLA": 467,
      "if": 468,
      "her": 469,
      "AP": 470,
      "ke": 471,
      "el": 472,
      "Ġas": 473,
      "NFT": 474,
      "ast": 475,
      "ab": 476,
      "th": 477,
      "os": 478,
      "ĠG": 479,
      "ļĢ": 480,
      "lock": 481,
      "Ġ3": 482,
      "ear": 483,
      "ðĿ": 484,
      "20": 485,
      "ist": 486,
      "hereum": 487,
      "ard": 488,
      "Ġsu": 489,
      "ðŁĴ": 490,
      "ra": 491,
      "Ġproject": 492,
      "ter": 493,
      "cryptocurrency": 494,
      "rom": 495,
      "Ġht": 496,
      "ull": 497,
      "ment": 498,
      "ess": 499,
      "and": 500,
      "dro": 501,
      "Ġhttps": 502,
      "Ġex": 503,
      "ĠO": 504,
      "Ġcom": 505,
      "day": 506,
      "Ġâ": 507,
      "Ġ0": 508,
      "our": 509,
      "Ġj": 510,
      "very": 511,
      "ock": 512,
      "ong": 513,
      "Ġme": 514,
      "APL": 515,
      "Ġ20": 516,
      "Ġfrom": 517,
      "AAPL": 518,
      "Ġnot": 519,
      "Ġgo": 520,
      "Ġab": 521,
      "oll": 522,
      "ts": 523,
      "AM": 524,
      "irdro": 525,
      "vest": 526,
      "Ġyour": 527,
      "chain": 528,
      "rading": 529,
      "ure": 530,
      "Ġhave": 531,
      "Ġprice": 532,
      "Ġde": 533,
      "Ġ&": 534,
      "ib": 535,
      "amp": 536,
      "ake": 537,
      "ue": 538,
      "Ġr": 539,
      "Ġhas": 540,
      "ews": 541,
      "The": 542,
      "Ġne": 543,
      "ore": 544,
      "ike": 545,
      "ken": 546,
      "ï¸": 547,
      "ï¸ı": 548,
      "...": 549,
      "ci": 550,
      "old": 551,
      "Ġcon": 552,
      "Ġdo": 553,
      "Ġcan": 554,
      "ink": 555,
      "te": 556,
      "000": 557,
      "Ġall": 558,
      "Ġby": 559,
      "Ġmy": 560,
      "ðŁĶ": 561,
      "Ġch": 562,
      "thereum": 563,
      "NB": 564,
      "Ġmore": 565,
      "Ġ4": 566,
      "ack": 567,
      "Ġnow": 568,
      "ðĿĲ": 569,
      "end": 570,
      "Ġk": 571,
      "Ġ5": 572,
      "Ġout": 573,
      "oge": 574,
      "ant": 575,
      "lockchain": 576,
      "Ġal": 577,
      "ðŁļĢ": 578,
      "'t": 579,
      "ood": 580,
      "Ġhe": 581,
      "ally": 582,
      "!!": 583,
      "ould": 584,
      "ning": 585,
      "irdrop": 586,
      "Ġor": 587,
      "red": 588,
      "ine": 589,
      "ks": 590,
      "ime": 591,
      "tcoin": 592,
      "SC": 593,
      "em": 594,
      "Ġus": 595,
      "ĠThe": 596,
      "own": 597,
      "Ġget": 598,
      "Ethereum": 599,
      "ia": 600,
      "Ġlike": 601,
      "ell": 602,
      "ight": 603,
      "Binance": 604,
      "ays": 605,
      "ĠTh": 606,
      "Ġbuy": 607,
      "22": 608,
      "ie": 609,
      "ÂłÂł": 610,
      "od": 611,
      "ĠĠĠĠĠĠĠĠ": 612,
      "ĊĊ": 613,
      "DA": 614,
      "ĠU": 615,
      "ff": 616,
      "ZN": 617,
      "eth": 618,
      "Ġcrypto": 619,
      "OG": 620,
      "qu": 621,
      "Ġmarket": 622,
      "10": 623,
      "ON": 624,
      "res": 625,
      "ag": 626,
      "ork": 627,
      "ĠBitcoin": 628,
      "Ġbut": 629,
      "we": 630,
      "AMZN": 631,
      "Ġabout": 632,
      "BNB": 633,
      "21": 634,
      "nft": 635,
      "ish": 636,
      "ght": 637,
      "ase": 638,
      "ign": 639,
      "50": 640,
      "ĠJ": 641,
      "ollow": 642,
      "Ġ:": 643,
      "iv": 644,
      "BSC": 645,
      "ash": 646,
      "reat": 647,
      "Ġjust": 648,
      "oney": 649,
      "sh": 650,
      "ip": 651,
      "SP": 652,
      "ange": 653,
      "Ġte": 654,
      "Ġwas": 655,
      "ec": 656,
      "MA": 657,
      "ions": 658,
      "unity": 659,
      "Ġpl": 660,
      "Ġle": 661,
      "stock": 662,
      "19": 663,
      "ĠY": 664,
      "ook": 665,
      "ai": 666,
      "ide": 667,
      "row": 668,
      "pport": 669,
      "ER": 670,
      "Airdrop": 671,
      "xt": 672,
      "ame": 673,
      "ans": 674,
      "hen": 675,
      "Ġsee": 676,
      "Ġun": 677,
      "Ġ6": 678,
      "iz": 679,
      "ĠIn": 680,
      "ite": 681,
      "GO": 682,
      "Ġtime": 683,
      "In": 684,
      "Ġthey": 685,
      "30": 686,
      "Th": 687,
      "Coin": 688,
      "Ġad": 689,
      "ound": 690,
      "com": 691,
      "15": 692,
      "Ġam": 693,
      "Ġtr": 694,
      "Ġif": 695,
      "ies": 696,
      "pt": 697,
      "cc": 698,
      "ðŁĩ": 699,
      "De": 700,
      "ost": 701,
      "per": 702,
      "Ch": 703,
      "de": 704,
      "USDT": 705,
      "18": 706,
      "AR": 707,
      "au": 708,
      "ĠBTC": 709,
      "aw": 710,
      "ub": 711,
      "uture": 712,
      "TR": 713,
      "Ġag": 714,
      "ĠV": 715,
      "ank": 716,
      "est": 717,
      "16": 718,
      "Ġmin": 719,
      "sp": 720,
      "Ġwee": 721,
      "ĠâĢ": 722,
      "SH": 723,
      "Ġone": 724,
      "ree": 725,
      "17": 726,
      "ðŁĶ¥": 727,
      "ðŁĳ": 728,
      "24": 729,
      "Ġbeen": 730,
      "Ġnew": 731,
      "ĠPrice": 732,
      "doge": 733,
      "eta": 734,
      "ES": 735,
      "trading": 736,
      "Ġsp": 737,
      "Ġcomp": 738,
      "are": 739,
      "Ġbitcoin": 740,
      "Ġover": 741,
      "Ġsome": 742,
      "Ġgood": 743,
      "az": 744,
      "age": 745,
      "io": 746,
      "To": 747,
      "av": 748,
      "orm": 749,
      "Ġwhat": 750,
      "eop": 751,
      "AL": 752,
      "Ġtoday": 753,
      "Fi": 754,
      "Ġ10": 755,
      "altcoin": 756,
      "ors": 757,
      "orld": 758,
      "Ġdown": 759,
      "Ġhere": 760,
      "ove": 761,
      "rade": 762,
      "GOOG": 763,
      "12": 764,
      "ðŁĴİ": 765,
      "Ġevery": 766,
      "eople": 767,
      "ther": 768,
      "igh": 769,
      "munity": 770,
      "blockchain": 771,
      "ice": 772,
      "Ġthan": 773,
      "ber": 774,
      "AN": 775,
      "aking": 776,
      "OR": 777,
      "so": 778,
      "ets": 779,
      "14": 780,
      "act": 781,
      "ale": 782,
      "ĠIt": 783,
      "usk": 784,
      "Ġ\"": 785,
      "13": 786,
      "Ġyear": 787,
      "fore": 788,
      "now": 789,
      "ac": 790,
      "Ġdon": 791,
      "Ġinvest": 792,
      "stocks": 793,
      "Ġri": 794,
      "bs": 795,
      "Ġany": 796,
      "ĠðŁļĢ": 797,
      "Ġgoing": 798,
      "ang": 799,
      "any": 800,
      "Ġ+": 801,
      "low": 802,
      "25": 803,
      "ĠCh": 804,
      "ind": 805,
      "ven": 806,
      "oun": 807,
      "ðŁĵ": 808,
      "Ġvery": 809,
      "Ġthink": 810,
      "Ġ.": 811,
      "ated": 812,
      "ass": 813,
      "BA": 814,
      "Ġour": 815,
      "NF": 816,
      "ous": 817,
      "able": 818,
      "Ġ7": 819,
      "99": 820,
      "Ġbull": 821,
      "Ġupd": 822,
      "Wh": 823,
      "ĠðŁĴ": 824,
      "Ġwould": 825,
      "cent": 826,
      "tsla": 827,
      "ting": 828,
      "ĠUSD": 829,
      "ick": 830,
      "ial": 831,
      "Ġtheir": 832,
      "Ġwhen": 833,
      "Ġpeople": 834,
      "work": 835,
      "ĠĠĠ": 836,
      "23": 837,
      "40": 838,
      "ich": 839,
      "wit": 840,
      "Ġi": 841,
      "Ġlong": 842,
      "):": 843,
      "Ġlast": 844,
      "ano": 845,
      "gh": 846,
      "ump": 847,
      "urrent": 848,
      "EN": 849,
      "Sh": 850,
      "fter": 851,
      "Ġtry": 852,
      "Ġno": 853,
      "Ġ=": 854,
      "form": 855,
      "Ġhow": 856,
      "illion": 857,
      "fit": 858,
      "ĠThis": 859,
      "Ġgreat": 860,
      "Ġknow": 861,
      "fe": 862,
      "ates": 863,
      "ert": 864,
      "Ġmoney": 865,
      "Ġnext": 866,
      "ital": 867,
      "Ġper": 868,
      "St": 869,
      "ĠWh": 870,
      "og": 871,
      "Ġear": 872,
      "Ġfuture": 873,
      "Ġweek": 874,
      "IC": 875,
      "Ġback": 876,
      "Ġshort": 877,
      "Ġits": 878,
      "ignal": 879,
      "invest": 880,
      "Ġim": 881,
      "Ġhold": 882,
      "ĠRe": 883,
      "ðŁĺ": 884,
      "ðŁļĢðŁļĢ": 885,
      "esla": 886,
      "atch": 887,
      "11": 888,
      "Ġwho": 889,
      "%)": 890,
      "Ġcont": 891,
      "iss": 892,
      "verse": 893,
      "We": 894,
      "Ġar": 895,
      "ĠSt": 896,
      "ud": 897,
      "get": 898,
      "Ġoff": 899,
      "Ġonly": 900,
      "ond": 901,
      "RP": 902,
      "wap": 903,
      "ume": 904,
      "28": 905,
      "Ġ8": 906,
      "ral": 907,
      "ax": 908,
      "ile": 909,
      "port": 910,
      "29": 911,
      "Ġstill": 912,
      "binance": 913,
      "ST": 914,
      "Ġday": 915,
      "Ġexp": 916,
      "cial": 917,
      "UN": 918,
      "OT": 919,
      "nder": 920,
      "MS": 921,
      "Ġthere": 922,
      "OIN": 923,
      "ðŁ¤": 924,
      "Ġneed": 925,
      "Ġlow": 926,
      "BI": 927,
      "OL": 928,
      "rend": 929,
      "Al": 930,
      "ĠðŁĳ": 931,
      "pple": 932,
      "ĠðŁĺ": 933,
      "Ġsupport": 934,
      "etwork": 935,
      "Ġen": 936,
      "Ġlook": 937,
      "QQ": 938,
      "olume": 939,
      "Ġinto": 940,
      "Ġbet": 941,
      "XRP": 942,
      "unt": 943,
      "oon": 944,
      "ction": 945,
      "26": 946,
      "Ġstr": 947,
      "market": 948,
      "ethereum": 949,
      "Ġac": 950,
      "ough": 951,
      "mart": 952,
      "ED": 953,
      "Ġstart": 954,
      "aily": 955,
      "irst": 956,
      "witter": 957,
      "27": 958,
      "0000": 959,
      "ĠðŁĶ": 960,
      "DeFi": 961,
      "Ġbig": 962,
      "Ġpart": 963,
      "ric": 964,
      "oss": 965,
      "Ġres": 966,
      "tock": 967,
      "38": 968,
      "FB": 969,
      "ady": 970,
      "ome": 971,
      "ace": 972,
      "ats": 973,
      "pen": 974,
      "ĊĠ": 975,
      "90": 976,
      "OM": 977,
      "45": 978,
      "Ġ,": 979,
      "aly": 980,
      "ADA": 981,
      "und": 982,
      "IB": 983,
      "Ġmake": 984,
      "Ġstock": 985,
      "This": 986,
      "35": 987,
      "uck": 988,
      "ĠWe": 989,
      "rest": 990,
      "ought": 991,
      "pe": 992,
      "Doge": 993,
      "Ġmon": 994,
      "https": 995,
      "RE": 996,
      "ob": 997,
      "Ġcoin": 998,
      "ress": 999,
      "AT": 1000,
      "100": 1001,
      "ward": 1002,
      "ait": 1003,
      "ne": 1004,
      "reak": 1005,
      "ov": 1006,
      "ful": 1007,
      "Ġagain": 1008,
      "change": 1009,
      "up": 1010,
      "Ġfollow": 1011,
      "iveaw": 1012,
      "ĠCrypto": 1013,
      "âĢĿ": 1014,
      "Market": 1015,
      "Re": 1016,
      "Ġhigh": 1017,
      "weet": 1018,
      "à¤": 1019,
      "ĠK": 1020,
      "60": 1021,
      "Ġsell": 1022,
      "ardano": 1023,
      "ĠAl": 1024,
      "75": 1025,
      "ING": 1026,
      "LL": 1027,
      "Ġunder": 1028,
      "Ġsc": 1029,
      "ope": 1030,
      "ary": 1031,
      "News": 1032,
      "cies": 1033,
      "allet": 1034,
      "Ġshould": 1035,
      "Ġright": 1036,
      "RO": 1037,
      "NFTs": 1038,
      "IT": 1039,
      "Ġteam": 1040,
      "ise": 1041,
      "Ġ|": 1042,
      "Ġother": 1043,
      "cl": 1044,
      "Ġworld": 1045,
      "wn": 1046,
      "Ġafter": 1047,
      "ms": 1048,
      "48": 1049,
      "Ġhapp": 1050,
      "ause": 1051,
      "token": 1052,
      "ach": 1053,
      "ľħ": 1054,
      "Ġbest": 1055,
      "ĠYou": 1056,
      "CH": 1057,
      "ah": 1058,
      "uch": 1059,
      "ble": 1060,
      "ose": 1061,
      "hed": 1062,
      "ings": 1063,
      "ave": 1064,
      "Chain": 1065,
      "âĤ": 1066,
      "MSFT": 1067,
      "ðŁı": 1068,
      "eep": 1069,
      "70": 1070,
      "46": 1071,
      "ĠTo": 1072,
      "Ġcall": 1073,
      "Ġclo": 1074,
      "ex": 1075,
      "gr": 1076,
      "terest": 1077,
      "36": 1078,
      "Ġapp": 1079,
      "39": 1080,
      "heck": 1081,
      "Ġval": 1082,
      "anc": 1083,
      "fi": 1084,
      "ccess": 1085,
      "min": 1086,
      "etaverse": 1087,
      "FE": 1088,
      "Ġpre": 1089,
      "ron": 1090,
      "Ġfree": 1091,
      "Ġtrans": 1092,
      "SPY": 1093,
      "ļ¨": 1094,
      "ult": 1095,
      "osit": 1096,
      "ens": 1097,
      "ire": 1098,
      "oc": 1099,
      "--": 1100,
      "SPX": 1101,
      "ĠðŁ¤": 1102,
      "Ġtrading": 1103,
      "Ġwant": 1104,
      "fl": 1105,
      "EC": 1106,
      "37": 1107,
      "Ġdoes": 1108,
      "ÂłÂłÂłÂł": 1109,
      "ical": 1110,
      "ana": 1111,
      "'m": 1112,
      "49": 1113,
      "uld": 1114,
      "rd": 1115,
      "arm": 1116,
      "GOOGL": 1117,
      "ĠSh": 1118,
      "vel": 1119,
      "80": 1120,
      "pl": 1121,
      "ann": 1122,
      "currencies": 1123,
      "elon": 1124,
      "urn": 1125,
      "be": 1126,
      "Ġfirst": 1127,
      "Ġthen": 1128,
      "Ã°": 1129,
      "âĸ": 1130,
      "Ġcould": 1131,
      "du": 1132,
      "Ġmuch": 1133,
      "Ġwork": 1134,
      "Ġ/": 1135,
      "lon": 1136,
      "IS": 1137,
      "EX": 1138,
      "55": 1139,
      "nb": 1140,
      "ĠPro": 1141,
      "Ġtoo": 1142,
      "47": 1143,
      "the": 1144,
      "Follow": 1145,
      "If": 1146,
      "Ġadd": 1147,
      "vi": 1148,
      "iveaway": 1149,
      "ru": 1150,
      "ince": 1151,
      "musk": 1152,
      "Ġbefore": 1153,
      "Ġbullish": 1154,
      "Ġhour": 1155,
      "Ġway": 1156,
      "ory": 1157,
      "Ġthem": 1158,
      "ðĿĹ": 1159,
      "88": 1160,
      "Ġmost": 1161,
      "chn": 1162,
      "ason": 1163,
      "come": 1164,
      "Ġ9": 1165,
      "Ġbreak": 1166,
      "Ġmonth": 1167,
      "Ã¢": 1168,
      "ss": 1169,
      "ments": 1170,
      "Ġsoon": 1171,
      "cre": 1172,
      "âĢ¢": 1173,
      "Ġown": 1174,
      "fin": 1175,
      "bit": 1176,
      "âĢ¯": 1177,
      "TO": 1178,
      "elonmusk": 1179,
      "Ġplay": 1180,
      "Ġreal": 1181,
      "ĠETH": 1182,
      "Token": 1183,
      "SHIB": 1184,
      "ĠEx": 1185,
      "llect": 1186,
      "Ġmiss": 1187,
      "oy": 1188,
      "ars": 1189,
      "Ġbot": 1190,
      "ail": 1191,
      "76": 1192,
      "Ġbec": 1193,
      "âŀ": 1194,
      "igital": 1195,
      "ence": 1196,
      "33": 1197,
      "Blockchain": 1198,
      "Ġmove": 1199,
      "Ġ[": 1200,
      "ving": 1201,
      "ton": 1202,
      "44": 1203,
      "Stock": 1204,
      "Ġtake": 1205,
      "Ġprofit": 1206,
      "ty": 1207,
      "ating": 1208,
      "aun": 1209,
      "Ar": 1210,
      "TCOIN": 1211,
      "ĠAn": 1212,
      "akes": 1213,
      "Å¸": 1214,
      "Ġvia": 1215,
      "par": 1216,
      "ations": 1217,
      "Ġdis": 1218,
      "Ġaw": 1219,
      "ightning": 1220,
      "gy": 1221,
      "âĤ¬": 1222,
      "ik": 1223,
      "anks": 1224,
      "Ġhis": 1225,
      "Ã°Å¸": 1226,
      "Ġhope": 1227,
      "ðŁĲ": 1228,
      "ased": 1229,
      "vers": 1230,
      "ĠIN": 1231,
      "ĠQ": 1232,
      "gest": 1233,
      "Ġdays": 1234,
      "ade": 1235,
      "Ġse": 1236,
      "af": 1237,
      "ues": 1238,
      "shib": 1239,
      "....": 1240,
      "It": 1241,
      "iness": 1242,
      "gt": 1243,
      "Ġbecause": 1244,
      "Ġpay": 1245,
      "Ġqu": 1246,
      "dogecoin": 1247,
      "Ġrecent": 1248,
      "orth": 1249,
      "other": 1250,
      "OW": 1251,
      "ift": 1252,
      "les": 1253,
      "ips": 1254,
      "Ġâŀ": 1255,
      "Ġ15": 1256,
      "Ġ24": 1257,
      "bol": 1258,
      "TH": 1259,
      "irdrops": 1260,
      "66": 1261,
      "arget": 1262,
      "EO": 1263,
      "AS": 1264,
      "bsc": 1265,
      "Ġro": 1266,
      "ility": 1267,
      "Ġ100": 1268,
      "ĠTH": 1269,
      "con": 1270,
      "ommunity": 1271,
      "Ġreally": 1272,
      "Ġtrend": 1273,
      "aid": 1274,
      "Ġfin": 1275,
      "Ġchart": 1276,
      "77": 1277,
      "Ġser": 1278,
      "link": 1279,
      "aby": 1280,
      "Ġdid": 1281,
      "OGE": 1282,
      "Price": 1283,
      "Ġbetter": 1284,
      "LX": 1285,
      "ĠIf": 1286,
      "lie": 1287,
      "An": 1288,
      "Ġcurrent": 1289,
      "ible": 1290,
      "Ġalso": 1291,
      "Ġnews": 1292,
      "usiness": 1293,
      "nings": 1294,
      "Ġsec": 1295,
      "Ġeven": 1296,
      "base": 1297,
      "ative": 1298,
      "Ġtrade": 1299,
      "AV": 1300,
      "sol": 1301,
      "Ġlist": 1302,
      "rash": 1303,
      "ord": 1304,
      "velo": 1305,
      "Ġbelow": 1306,
      "Ġcoming": 1307,
      "Gem": 1308,
      "Ġwhich": 1309,
      "Ġtop": 1310,
      "Ġlot": 1311,
      "app": 1312,
      "Ġstrong": 1313,
      "tom": 1314,
      "Ġsay": 1315,
      "06": 1316,
      "Ġent": 1317,
      "ĠâĢľ": 1318,
      "âĢ¦": 1319,
      "You": 1320,
      "UR": 1321,
      "500": 1322,
      "rp": 1323,
      "Ġyears": 1324,
      "Ġsince": 1325,
      "mer": 1326,
      "Airdrops": 1327,
      "OD": 1328,
      "yst": 1329,
      "Ġtoken": 1330,
      "Ġmany": 1331,
      "wh": 1332,
      "Ġwhy": 1333,
      "Ġuse": 1334,
      "bull": 1335,
      "Ġupdate": 1336,
      "ĠLast": 1337,
      "news": 1338,
      "SI": 1339,
      "Ġinterest": 1340,
      "ix": 1341,
      "'re": 1342,
      "98": 1343,
      "Ġ?": 1344,
      "!!!": 1345,
      "ian": 1346,
      "sc": 1347,
      "ðŁļ¨": 1348,
      "ok": 1349,
      "NFLX": 1350,
      "05": 1351,
      "ļ¡": 1352,
      "Ġvalue": 1353,
      "Ġact": 1354,
      "Ġlevel": 1355,
      "earn": 1356,
      "lp": 1357,
      "thing": 1358,
      "ract": 1359,
      "Ġcryptocurrency": 1360,
      "Ġrun": 1361,
      "65": 1362,
      "AD": 1363,
      "ways": 1364,
      "DOGE": 1365,
      "ĠHe": 1366,
      "lease": 1367,
      "Ġass": 1368,
      "air": 1369,
      "cryp": 1370,
      "Ġcap": 1371,
      "Ġthese": 1372,
      "Ġupdates": 1373,
      "ild": 1374,
      "rader": 1375,
      "NFTC": 1376,
      "34": 1377,
      "AX": 1378,
      "INK": 1379,
      "ID": 1380,
      "Ġopport": 1381,
      "Ġ2022": 1382,
      "ug": 1383,
      "Ġsuccess": 1384,
      "95": 1385,
      "cryptocurrencies": 1386,
      "Metaverse": 1387,
      "lue": 1388,
      "Ġ2021": 1389,
      "vent": 1390,
      "mber": 1391,
      "78": 1392,
      "Ġabove": 1393,
      "velop": 1394,
      "MT": 1395,
      "ĠBuy": 1396,
      "ense": 1397,
      "ystem": 1398,
      "ep": 1399,
      "ĠMarket": 1400,
      "Ġbelie": 1401,
      "Ġend": 1402,
      "tern": 1403,
      "AC": 1404,
      "ĠðŁĶ¥": 1405,
      "Cardano": 1406,
      "ND": 1407,
      "als": 1408,
      "ffic": 1409,
      "Ġret": 1410,
      "verage": 1411,
      "Ġbuying": 1412,
      "Ġwait": 1413,
      "Ġhit": 1414,
      "Pro": 1415,
      "Ġwin": 1416,
      "Cryptocurrency": 1417,
      "Ġ30": 1418,
      "mp": 1419,
      "Ġjoin": 1420,
      "aj": 1421,
      "alk": 1422,
      "ounce": 1423,
      "erm": 1424,
      "CR": 1425,
      "bnb": 1426,
      "money": 1427,
      "apl": 1428,
      "Ġgot": 1429,
      "Ġz": 1430,
      "ina": 1431,
      "istance": 1432,
      "ĠInd": 1433,
      "investing": 1434,
      "my": 1435,
      "200": 1436,
      "ooks": 1437,
      "ics": 1438,
      "EL": 1439,
      "olog": 1440,
      "collect": 1441,
      "Ġclose": 1442,
      "Ġmay": 1443,
      "ĠUS": 1444,
      "FEG": 1445,
      "Ġcl": 1446,
      "Ġdro": 1447,
      "Ġwallet": 1448,
      "BITCOIN": 1449,
      "alys": 1450,
      "Ġ!": 1451,
      "parrow": 1452,
      "atform": 1453,
      "ution": 1454,
      "96": 1455,
      "ife": 1456,
      "fer": 1457,
      "He": 1458,
      "Ġtweet": 1459,
      "spect": 1460,
      "bal": 1461,
      "Sol": 1462,
      "GE": 1463,
      "Ġwell": 1464,
      "Ġusd": 1465,
      "âĦ": 1466,
      "pro": 1467,
      "Ġhelp": 1468,
      "Ġhad": 1469,
      "ĠTO": 1470,
      "ized": 1471,
      "Ġgrow": 1472,
      "ool": 1473,
      "âľħ": 1474,
      "Swap": 1475,
      "ger": 1476,
      "ict": 1477,
      "Ġworth": 1478,
      "ĠĠĠĠĠ": 1479,
      "Ġput": 1480,
      "07": 1481,
      "Ġreg": 1482,
      "43": 1483,
      "LINK": 1484,
      "Ġ'": 1485,
      "med": 1486,
      "Smart": 1487,
      "Ex": 1488,
      "QQQ": 1489,
      "sel": 1490,
      "ĠðŁĵ": 1491,
      "Tesla": 1492,
      "85": 1493,
      "ĠĊĊ": 1494,
      "ancial": 1495,
      "ames": 1496,
      "Ġaround": 1497,
      "azing": 1498,
      "Ġ50": 1499,
      "Ġman": 1500,
      "itt": 1501,
      "CD": 1502,
      "eg": 1503,
      "RT": 1504,
      "ðŁĴ°": 1505,
      "YP": 1506,
      "ðŁĮ": 1507,
      "cord": 1508,
      "twitter": 1509,
      "ðŁĶ¥ðŁĶ¥": 1510,
      "__": 1511,
      "What": 1512,
      "ĠNFT": 1513,
      "urrency": 1514,
      "Ġopportunity": 1515,
      "aunch": 1516,
      "Ġposit": 1517,
      "31": 1518,
      "TI": 1519,
      "laim": 1520,
      "Ġfe": 1521,
      "ðŁİ": 1522,
      "âĢ¯âĢ¯": 1523,
      "ignals": 1524,
      "ĠAnd": 1525,
      "ves": 1526,
      "tcoiner": 1527,
      "boltcoiner": 1528,
      "Ġpow": 1529,
      "Ġguy": 1530,
      "Ġpost": 1531,
      "ðŁĳĩ": 1532,
      "ĠTesla": 1533,
      "86": 1534,
      "aapl": 1535,
      "oly": 1536,
      "Ġopen": 1537,
      "ath": 1538,
      "ata": 1539,
      "Ġwhere": 1540,
      "Network": 1541,
      "Ġbear": 1542,
      "rices": 1543,
      "ced": 1544,
      "Ġhig": 1545,
      "ĠDe": 1546,
      "oog": 1547,
      "Ġwatch": 1548,
      "ï¸ıâ": 1549,
      "Ġcontin": 1550,
      "ari": 1551,
      "Te": 1552,
      "ities": 1553,
      "LO": 1554,
      "Ġbeing": 1555,
      "Ġfew": 1556,
      "Ġ...": 1557,
      "kn": 1558,
      "Se": 1559,
      "IG": 1560,
      "que": 1561,
      "01": 1562,
      "Ġeveryone": 1563,
      "79": 1564,
      "li": 1565,
      "Ġmillion": 1566,
      "alysis": 1567,
      "Trading": 1568,
      "Ġlooking": 1569,
      "Ġalways": 1570,
      "tic": 1571,
      "Ġbelieve": 1572,
      "lace": 1573,
      "ox": 1574,
      "lobal": 1575,
      "usd": 1576,
      "ual": 1577,
      "of": 1578,
      "eel": 1579,
      "ully": 1580,
      "ĠĠĊ": 1581,
      "hes": 1582,
      "Ġshow": 1583,
      "Bit": 1584,
      "Ġkeep": 1585,
      "ales": 1586,
      "Ġtrad": 1587,
      "ready": 1588,
      "Ġdoing": 1589,
      "08": 1590,
      "Ġ%": 1591,
      "xrp": 1592,
      "man": 1593,
      "Ġwere": 1594,
      "Ġdevelop": 1595,
      "CO": 1596,
      "Ġpoin": 1597,
      "riend": 1598,
      "Ġset": 1599,
      "less": 1600,
      "Ġnever": 1601,
      "ĠCom": 1602,
      "Ġris": 1603,
      "Ġtri": 1604,
      "azon": 1605,
      "??": 1606,
      "ĠUp": 1607,
      "ðŁŁ": 1608,
      "tr": 1609,
      "Ġbu": 1610,
      "Ŀ¤": 1611,
      "alth": 1612,
      "rough": 1613,
      "Ġcommunity": 1614,
      "TW": 1615,
      "Ġfund": 1616,
      "Ġcome": 1617,
      "ential": 1618,
      "uge": 1619,
      "ner": 1620,
      "Ġcompany": 1621,
      "Ġrem": 1622,
      "Ġcons": 1623,
      "Ġanother": 1624,
      "chnolog": 1625,
      "Ġhours": 1626,
      "opt": 1627,
      "Ġhappen": 1628,
      "Ġmoon": 1629,
      "Ġind": 1630,
      "32": 1631,
      "nt": 1632,
      "hi": 1633,
      "ĠWhat": 1634,
      "Ġincre": 1635,
      "reen": 1636,
      "ains": 1637,
      "nftart": 1638,
      "Shib": 1639,
      "Ġmaking": 1640,
      "Ġlove": 1641,
      "Ġexpect": 1642,
      "Ġfound": 1643,
      "Solana": 1644,
      "Ġplatform": 1645,
      "Ġbr": 1646,
      "UY": 1647,
      "anges": 1648,
      "Buy": 1649,
      "41": 1650,
      "pping": 1651,
      "eek": 1652,
      "feren": 1653,
      "Ġwhile": 1654,
      "entral": 1655,
      "ont": 1656,
      "SE": 1657,
      "89": 1658,
      "Ġgiv": 1659,
      "ĠĠĠĠĠĠĠĠĠĠĠĠĠĠĠĠ": 1660,
      "uff": 1661,
      "wards": 1662,
      "cept": 1663,
      "ph": 1664,
      "reed": 1665,
      "fficial": 1666,
      "itbull": 1667,
      "NFTCommunity": 1668,
      "Ġinst": 1669,
      "Ġhard": 1670,
      "Ġsame": 1671,
      "tonews": 1672,
      "AK": 1673,
      "ually": 1674,
      "ĠJoin": 1675,
      "Ġlet": 1676,
      "ðŁĶ»": 1677,
      "ĠðĿĲ": 1678,
      "Ġgr": 1679,
      "ited": 1680,
      "IL": 1681,
      "ubl": 1682,
      "CryptoNews": 1683,
      "ĠBe": 1684,
      "Ġthose": 1685,
      "ollar": 1686,
      "UT": 1687,
      "56": 1688,
      "Ġmade": 1689,
      "Ġpump": 1690,
      "ream": 1691,
      "ĠIs": 1692,
      "Ġreport": 1693,
      "Ġever": 1694,
      "ĠTe": 1695,
      "42": 1696,
      "Ġprodu": 1697,
      "quid": 1698,
      "Ġalready": 1699,
      "airdrop": 1700,
      "ines": 1701,
      "'ll": 1702,
      "Ġatt": 1703,
      "assive": 1704,
      "BSCGem": 1705,
      "gon": 1706,
      "ators": 1707,
      "stand": 1708,
      "Ġgetting": 1709,
      "EW": 1710,
      "pr": 1711,
      "TRX": 1712,
      "Ġ19": 1713,
      "ðŁ¥": 1714,
      "odl": 1715,
      "Ġago": 1716,
      "line": 1717,
      "Current": 1718,
      "Ġlate": 1719,
      "bt": 1720,
      "uss": 1721,
      "Ġlower": 1722,
      "dd": 1723,
      "SOL": 1724,
      "Ġthrough": 1725,
      "ĠNow": 1726,
      "na": 1727,
      "LN": 1728,
      "ater": 1729,
      "weets": 1730,
      "ush": 1731,
      "Ġchange": 1732,
      "ĵðĿĲ": 1733,
      "Ġamazing": 1734,
      "da": 1735,
      "Ġdoesn": 1736,
      "69": 1737,
      "ðĿĲĵðĿĲ": 1738,
      "count": 1739,
      "2022": 1740,
      "ition": 1741,
      "Invest": 1742,
      "Giveaway": 1743,
      "cryptonews": 1744,
      "SmartChain": 1745,
      "ĠLine": 1746,
      "Ġhigher": 1747,
      "gram": 1748,
      "ram": 1749,
      "known": 1750,
      "ares": 1751,
      "Ġbought": 1752,
      "Ġsure": 1753,
      "59": 1754,
      "BinanceSmartChain": 1755,
      "wo": 1756,
      "Be": 1757,
      "ute": 1758,
      "orrow": 1759,
      "Ġann": 1760,
      "ario": 1761,
      "ĠOn": 1762,
      "ĠAlert": 1763,
      "MACD": 1764,
      "ents": 1765,
      "ious": 1766,
      "Ġwor": 1767,
      "Ġcoins": 1768,
      "'ve": 1769,
      "gin": 1770,
      "til": 1771,
      "ĠâĤ": 1772,
      "PM": 1773,
      "Ġdes": 1774,
      "Daily": 1775,
      "Ġsur": 1776,
      "nftcollect": 1777,
      "arn": 1778,
      "rib": 1779,
      "ons": 1780,
      "57": 1781,
      "chnology": 1782,
      "58": 1783,
      "Ġpri": 1784,
      "inspect": 1785,
      "Ġbro": 1786,
      "XL": 1787,
      "arch": 1788,
      "Ġsuper": 1789,
      "bl": 1790,
      "So": 1791,
      "self": 1792,
      "lor": 1793,
      "cryptotrading": 1794,
      "Ġclaim": 1795,
      "Ġ12": 1796,
      "ield": 1797,
      "iquid": 1798,
      "Ġ11": 1799,
      "top": 1800,
      "Ġeas": 1801,
      "Elon": 1802,
      "ery": 1803,
      "ĠNot": 1804,
      "âĦ¢": 1805,
      "mazon": 1806,
      "ĠFor": 1807,
      "Volume": 1808,
      "otential": 1809,
      "ross": 1810,
      "Ġresistance": 1811,
      "04": 1812,
      "ize": 1813,
      "pped": 1814,
      "rong": 1815,
      "Ġ18": 1816,
      "col": 1817,
      "ĠSo": 1818,
      ").": 1819,
      "ĠĠĠĠĠĠ": 1820,
      "ĠCoin": 1821,
      "Com": 1822,
      "Ġsm": 1823,
      "ces": 1824,
      "CE": 1825,
      "esome": 1826,
      "IR": 1827,
      "Ġdif": 1828,
      "On": 1829,
      "ero": 1830,
      "Ġsats": 1831,
      "Ġdaily": 1832,
      "CK": 1833,
      "Finance": 1834,
      "ething": 1835,
      "Baby": 1836,
      "ĠThat": 1837,
      "Ġimp": 1838,
      "TSLAQ": 1839,
      "imes": 1840,
      "Ġlive": 1841,
      "Altcoin": 1842,
      "For": 1843,
      "ily": 1844,
      "Ġâľħ": 1845,
      "Ġ]": 1846,
      "Ġthing": 1847,
      "orning": 1848,
      "Ġready": 1849,
      "ining": 1850,
      "lect": 1851,
      "ODL": 1852,
      "ĠBut": 1853,
      "Ġsign": 1854,
      "09": 1855,
      "Ġlooks": 1856,
      "altcoins": 1857,
      "Ġfeel": 1858,
      "gem": 1859,
      "Ġide": 1860,
      "AY": 1861,
      "Ġblockchain": 1862,
      "Ġsaid": 1863,
      "zn": 1864,
      "Ġvolume": 1865,
      "UM": 1866,
      "Ġsom": 1867,
      "Ġblock": 1868,
      "ĠTHE": 1869,
      "Ġ@_": 1870,
      "ðŁĻ": 1871,
      "ared": 1872,
      "Ġtarget": 1873,
      "Ġearn": 1874,
      "fully": 1875,
      "Ġearnings": 1876,
      "68": 1877,
      "Ġgu": 1878,
      "Top": 1879,
      "LTC": 1880,
      "ener": 1881,
      "vol": 1882,
      "ãĥ": 1883,
      "ether": 1884,
      "VE": 1885,
      "Ġfar": 1886,
      "ĠApple": 1887,
      "ĠNew": 1888,
      "Ġ200": 1889,
      "ĠThey": 1890,
      "flation": 1891,
      "finance": 1892,
      "My": 1893,
      "ptions": 1894,
      "Ġmonths": 1895,
      "BT": 1896,
      "Ġconf": 1897,
      "atos": 1898,
      "Ġsol": 1899,
      "Ġcheck": 1900,
      "ĠGood": 1901,
      "changes": 1902,
      "ices": 1903,
      "Moon": 1904,
      "key": 1905,
      "Ġterm": 1906,
      "Ġtransact": 1907,
      "Ġnice": 1908,
      "Ġmining": 1909,
      "Ġfriend": 1910,
      "âĸĳ": 1911,
      "MO": 1912,
      "Ġnetwork": 1913,
      "vice": 1914,
      "Ġinvestment": 1915,
      "Ġtweets": 1916,
      "Ġ14": 1917,
      "LUN": 1918,
      "Ġâļ¡": 1919,
      "âĢį": 1920,
      "Ġtalk": 1921,
      "Ġsupp": 1922,
      "Ġguys": 1923,
      "ky": 1924,
      "NV": 1925,
      "ading": 1926,
      "LD": 1927,
      "let": 1928,
      "Cap": 1929,
      "olygon": 1930,
      "New": 1931,
      "mon": 1932,
      "YPTO": 1933,
      "ered": 1934,
      "Ġgive": 1935,
      "ser": 1936,
      "etail": 1937,
      "Ġunderstand": 1938,
      "Ġusing": 1939,
      "Sp": 1940,
      "itecoin": 1941,
      "ny": 1942,
      "cryptoc": 1943,
      "ki": 1944,
      "UD": 1945,
      "ands": 1946,
      "ideo": 1947,
      "ĠEthereum": 1948,
      "su": 1949,
      "Ġsim": 1950,
      "03": 1951,
      "Ġyet": 1952,
      "ved": 1953,
      "Don": 1954,
      "val": 1955,
      "Ġuntil": 1956,
      "Ġplan": 1957,
      "ĠÃ°Å¸": 1958,
      "67": 1959,
      "bab": 1960,
      "How": 1961,
      "rate": 1962,
      "Ġ17": 1963,
      "Ġpred": 1964,
      "ym": 1965,
      "ðŁĵ£": 1966,
      "ada": 1967,
      "tech": 1968,
      "Ġdip": 1969,
      "Ġcor": 1970,
      "Ġher": 1971,
      "Ġshare": 1972,
      "Ġbank": 1973,
      "ners": 1974,
      "Ġtest": 1975,
      "hing": 1976,
      "Ġexchange": 1977,
      "book": 1978,
      "back": 1979,
      "Ġvis": 1980,
      "**": 1981,
      "ng": 1982,
      "ĠAs": 1983,
      "forex": 1984,
      "Sparrow": 1985,
      "ever": 1986,
      "Ġpoint": 1987,
      "Ġfall": 1988,
      "ðŁĵĪ": 1989,
      "Ġdel": 1990,
      "Ġra": 1991,
      "opense": 1992,
      "ĠðŁĴ°": 1993,
      "Ph": 1994,
      "Ġhuge": 1995,
      "Best": 1996,
      "As": 1997,
      "tocol": 1998,
      "No": 1999,
      "87": 2000,
      "Ġposs": 2001,
      "Ġfl": 2002,
      "OS": 2003,
      "ĠNo": 2004,
      "IA": 2005,
      "go": 2006,
      "lueSparrow": 2007,
      "Ġ($": 2008,
      "Ġbottom": 2009,
      "Ġbillion": 2010,
      "MY": 2011,
      "Is": 2012,
      "ulation": 2013,
      "Ġlink": 2014,
      "ĠðŁĲ": 2015,
      "Ġcash": 2016,
      "ĠDon": 2017,
      "Ġsomething": 2018,
      "conom": 2019,
      "Ġunknown": 2020,
      "ĠMay": 2021,
      "Ġgame": 2022,
      "Web": 2023,
      "ube": 2024,
      "Just": 2025,
      "Ġ2020": 2026,
      "Ġluck": 2027,
      "02": 2028,
      "Ġcle": 2029,
      ".\"": 2030,
      "uring": 2031,
      "97": 2032,
      "ĊĊĊ": 2033,
      "ĠðŁĩ": 2034,
      "Ġholding": 2035,
      "Not": 2036,
      "GM": 2037,
      "Ġtell": 2038,
      "ĠLightning": 2039,
      "TWTR": 2040,
      "EAR": 2041,
      "Lightning": 2042,
      "ĠON": 2043,
      "All": 2044,
      "amzn": 2045,
      "ised": 2046,
      "oh": 2047,
      "ester": 2048,
      "Ġtom": 2049,
      "onder": 2050,
      "ĠJust": 2051,
      "view": 2052,
      "ĠAll": 2053,
      "ONG": 2054,
      "Ġcurrency": 2055,
      "Ġlaunch": 2056,
      "urk": 2057,
      "Ġsays": 2058,
      "ific": 2059,
      "Ġph": 2060,
      "Ġloss": 2061,
      "Ġpotential": 2062,
      "defi": 2063,
      "Ġmoment": 2064,
      "ants": 2065,
      "eb": 2066,
      "LY": 2067,
      "âĸĳâĸĳ": 2068,
      "int": 2069,
      "der": 2070,
      "oup": 2071,
      "ody": 2072,
      "vern": 2073,
      "icators": 2074,
      "ults": 2075,
      "64": 2076,
      "Ġfollowing": 2077,
      "Ġtwo": 2078,
      "Tr": 2079,
      "âĤ¬âĦ¢": 2080,
      "Ġstocks": 2081,
      "ĠSH": 2082,
      "ider": 2083,
      "Ġlife": 2084,
      "erson": 2085,
      "Ġpur": 2086,
      "ĠWith": 2087,
      "Ġlar": 2088,
      "Ġbuild": 2089,
      "atter": 2090,
      "Ġplaying": 2091,
      "Ġinvestors": 2092,
      "ĠFollow": 2093,
      "Ġpr": 2094,
      "Join": 2095,
      "Ġdec": 2096,
      "Ġ40": 2097,
      "irl": 2098,
      "Ġsystem": 2099,
      "aylor": 2100,
      "ins": 2101,
      "ĠMon": 2102,
      "icro": 2103,
      "ittle": 2104,
      "Ġawesome": 2105,
      "Ġfinancial": 2106,
      "Ġtomorrow": 2107,
      "ĠSu": 2108,
      "oud": 2109,
      "Ġcar": 2110,
      "ðŁĶ´": 2111,
      "Ġexper": 2112,
      "Ġstop": 2113,
      "âĻ": 2114,
      "Signal": 2115,
      "Ġloc": 2116,
      "Ġbinance": 2117,
      "ĠPl": 2118,
      "ORT": 2119,
      "And": 2120,
      "ĠStock": 2121,
      "ode": 2122,
      "ĠMusk": 2123,
      "cz": 2124,
      "Ġfind": 2125,
      "Ġcalls": 2126,
      "Ġav": 2127,
      "utes": 2128,
      "Ġthings": 2129,
      "ĠWill": 2130,
      "ma": 2131,
      "SA": 2132,
      "Ġgoes": 2133,
      "Ġevent": 2134,
      "ĠĠĠĠĠĠĠĠĠ": 2135,
      "Ġpower": 2136,
      "ĠElon": 2137,
      "read": 2138,
      "ublic": 2139,
      "ĠTr": 2140,
      "Ġ16": 2141,
      "cle": 2142,
      "ĠUn": 2143,
      "Ġexchanges": 2144,
      "Ġleg": 2145,
      "Ġtips": 2146,
      "IP": 2147,
      "ĠLet": 2148,
      "mb": 2149,
      "Ġmight": 2150,
      "ĠVolume": 2151,
      "Ġbt": 2152,
      "1000": 2153,
      "world": 2154,
      "lt": 2155,
      "Stocks": 2156,
      "ĠNews": 2157,
      "Ġeverything": 2158,
      "Apple": 2159,
      "54": 2160,
      "raw": 2161,
      "Ġnum": 2162,
      "ĠBull": 2163,
      "âŀ·": 2164,
      "aph": 2165,
      "Ġnear": 2166,
      "Ġpartic": 2167,
      "its": 2168,
      "Ġacc": 2169,
      "reet": 2170,
      "ĠUTC": 2171,
      "pect": 2172,
      "ðŁ¦": 2173,
      "ajor": 2174,
      "annel": 2175,
      "esterday": 2176,
      "Btc": 2177,
      "ium": 2178,
      "Ġcr": 2179,
      "odel": 2180,
      "Ġdone": 2181,
      "ĠHow": 2182,
      "ending": 2183,
      "ĠTR": 2184,
      "ĠHigh": 2185,
      "Ġprov": 2186,
      "Ġtaking": 2187,
      "âŀ¶": 2188,
      "Ġearly": 2189,
      "LightningNetwork": 2190,
      "ĠUSDT": 2191,
      "uly": 2192,
      "Ġpat": 2193,
      "TIC": 2194,
      "aming": 2195,
      "une": 2196,
      "Bsc": 2197,
      "Ġcreat": 2198,
      "opensea": 2199,
      "53": 2200,
      "BTCUSD": 2201,
      "Musk": 2202,
      "Ġbad": 2203,
      "BB": 2204,
      "ret": 2205,
      "alyst": 2206,
      "ze": 2207,
      "ðŁĴ¥": 2208,
      "Ġ(-": 2209,
      "quest": 2210,
      "Ġhappy": 2211,
      "Ġusdt": 2212,
      "FTX": 2213,
      "LE": 2214,
      "Ġdep": 2215,
      "52": 2216,
      "ðŁĩ·": 2217,
      "Ġsold": 2218,
      "auc": 2219,
      "Ġless": 2220,
      "63": 2221,
      "atoshi": 2222,
      "Ġins": 2223,
      "Ġ21": 2224,
      "Ġext": 2225,
      "Ġfast": 2226,
      "NVDA": 2227,
      "Ġthought": 2228,
      "Ġbit": 2229,
      "nov": 2230,
      "Ġrange": 2231,
      "Ġva": 2232,
      "shiba": 2233,
      "Game": 2234,
      "Ġbusiness": 2235,
      "OO": 2236,
      "ETF": 2237,
      "ÂłÂłÂłÂłÂłÂłÂłÂł": 2238,
      "Ġmarkets": 2239,
      "ĠATH": 2240,
      "Ġdecent": 2241,
      "VER": 2242,
      "âĸĵ": 2243,
      "riday": 2244,
      "ĠâĤ¿": 2245,
      "Ġprom": 2246,
      "test": 2247,
      "gift": 2248,
      "Ġwon": 2249,
      "afe": 2250,
      "Ġexc": 2251,
      "cturk": 2252,
      "una": 2253,
      "ots": 2254,
      "Ġunlock": 2255,
      "MR": 2256,
      "âĢľ": 2257,
      "Ġselling": 2258,
      "Ġaway": 2259,
      "ĦðĿĲ": 2260,
      "att": 2261,
      "Panc": 2262,
      "ĠTrading": 2263,
      "Ġmorning": 2264,
      "Ġvs": 2265,
      "most": 2266,
      "ĳðĿĲ": 2267,
      "Do": 2268,
      "Ġaddress": 2269,
      "Ŀ¤ï¸ı": 2270,
      "ĠðŁİ": 2271,
      "Ġhim": 2272,
      "akeSwap": 2273,
      "ases": 2274,
      "iat": 2275,
      "artist": 2276,
      "ðŁŁ¢": 2277,
      "Day": 2278,
      "Ġbounce": 2279,
      "EP": 2280,
      "Ġboth": 2281,
      "Ġdifferen": 2282,
      "Ġel": 2283,
      "Ġbtcturk": 2284,
      "Ġclos": 2285,
      "Su": 2286,
      "ĠDo": 2287,
      "Ġdata": 2288,
      "web": 2289,
      "Ġdou": 2290,
      "ĠâĽ": 2291,
      "FI": 2292,
      "Ġlearn": 2293,
      "BlueSparrow": 2294,
      "Ġwithout": 2295,
      "ising": 2296,
      "NBC": 2297,
      "Ġpast": 2298,
      "eter": 2299,
      "Trade": 2300,
      "utures": 2301,
      "ĠZ": 2302,
      "Ġidea": 2303,
      "ĠCEO": 2304,
      "Ġagainst": 2305,
      "EM": 2306,
      "Ġfun": 2307,
      "vices": 2308,
      "option": 2309,
      "ĠChina": 2310,
      "When": 2311,
      "stockmarket": 2312,
      "51": 2313,
      "pri": 2314,
      "ention": 2315,
      "formation": 2316,
      "AVAX": 2317,
      "community": 2318,
      "ĠCan": 2319,
      "Ġvol": 2320,
      "Ġused": 2321,
      "ives": 2322,
      "Polygon": 2323,
      "Ġprojects": 2324,
      "Ġgold": 2325,
      "MATIC": 2326,
      "ðŁı»": 2327,
      "whale": 2328,
      "Ġhist": 2329,
      "Ġlittle": 2330,
      "aucet": 2331,
      "Ġinteresting": 2332,
      "Ġparticip": 2333,
      "VI": 2334,
      "Ġask": 2335,
      "Cl": 2336,
      "74": 2337,
      "Inu": 2338,
      "DC": 2339,
      "Dogecoin": 2340,
      "Ġcount": 2341,
      "coming": 2342,
      "ey": 2343,
      "onna": 2344,
      "Pitbull": 2345,
      "¡ï¸ı": 2346,
      "ĠĠĠĠĠĠĠ": 2347,
      "Good": 2348,
      "atic": 2349,
      "ator": 2350,
      "Ġtra": 2351,
      "Ġaccount": 2352,
      "Ġprices": 2353,
      "Ġposition": 2354,
      "ĠNe": 2355,
      "ĠðŁĻ": 2356,
      "Ġche": 2357,
      "Ġscam": 2358,
      "Ġappro": 2359,
      "000000": 2360,
      "date": 2361,
      ":$": 2362,
      "ĠExchange": 2363,
      "Ġ13": 2364,
      "iff": 2365,
      "94": 2366,
      "61": 2367,
      "ession": 2368,
      "Ġweeks": 2369,
      "ature": 2370,
      "Ġpair": 2371,
      "ĠBlock": 2372,
      "ĠBear": 2373,
      "](": 2374,
      "ple": 2375,
      "OP": 2376,
      "real": 2377,
      "Ġreason": 2378,
      "ĠGo": 2379,
      "91": 2380,
      "Ġline": 2381,
      "ĠThanks": 2382,
      "NT": 2383,
      "zy": 2384,
      "Ġfaucet": 2385,
      "bitcoiner": 2386,
      "âľ": 2387,
      "Ġpar": 2388,
      "StockMarket": 2389,
      "Pl": 2390,
      "Ġsuch": 2391,
      "Ġrisk": 2392,
      "Ġdigital": 2393,
      "ĠLow": 2394,
      "ĠHour": 2395,
      "Ġimport": 2396,
      "ween": 2397,
      "oogle": 2398,
      "ular": 2399,
      "Ind": 2400,
      "ĠâĽı": 2401,
      "Ġmissed": 2402,
      "84": 2403,
      "vious": 2404,
      "Ġweekly": 2405,
      "Ġmakes": 2406,
      "CL": 2407,
      "ye": 2408,
      "acebook": 2409,
      "ðŁĺĤ": 2410,
      "Ġminutes": 2411,
      "83": 2412,
      "iew": 2413,
      "mining": 2414,
      "ama": 2415,
      "PancakeSwap": 2416,
      "ĠThere": 2417,
      "time": 2418,
      "Ġsupply": 2419,
      "Ġbtc": 2420,
      "Ġshe": 2421,
      "oot": 2422,
      "Ġlead": 2423,
      "93": 2424,
      "TE": 2425,
      "Ġdrop": 2426,
      "ĠðŁĴİ": 2427,
      "OU": 2428,
      "71": 2429,
      "Bull": 2430,
      "Ġspe": 2431,
      "Ġsecond": 2432,
      "Ġ60": 2433,
      "aut": 2434,
      "digital": 2435,
      "Ġvideo": 2436,
      "Ġpredict": 2437,
      "pad": 2438,
      "Ġsmart": 2439,
      "member": 2440,
      "lack": 2441,
      "73": 2442,
      "ident": 2443,
      "ĠShort": 2444,
      "ĠGet": 2445,
      "pin": 2446,
      "ys": 2447,
      "Cryptoc": 2448,
      "business": 2449,
      "Ġserious": 2450,
      "Det": 2451,
      "Ġ~": 2452,
      "ĠIndicators": 2453,
      "ĠCap": 2454,
      "Ġdidn": 2455,
      "legram": 2456,
      "KI": 2457,
      "Ġbecome": 2458,
      "Cy": 2459,
      "ĠInvest": 2460,
      "arter": 2461,
      "gan": 2462,
      "land": 2463,
      "App": 2464,
      "aila": 2465,
      "Coinbase": 2466,
      "idd": 2467,
      "Ġfull": 2468,
      "ENT": 2469,
      "DIS": 2470,
      "BabyDoge": 2471,
      "ience": 2472,
      "ĠPR": 2473,
      "ffect": 2474,
      "Ġcrash": 2475,
      "ption": 2476,
      "Ġresults": 2477,
      "anies": 2478,
      "Un": 2479,
      "Ġlisted": 2480,
      "Ġworking": 2481,
      "down": 2482,
      "Ġleft": 2483,
      "ĠMore": 2484,
      "Ġwent": 2485,
      "edge": 2486,
      "vg": 2487,
      "UL": 2488,
      "cos": 2489,
      "IOT": 2490,
      "tp": 2491,
      "FF": 2492,
      "ĠâĢĺ": 2493,
      "Ġkey": 2494,
      "Army": 2495,
      "ðŁĴ¯": 2496,
      "62": 2497,
      "BABA": 2498,
      "reaking": 2499,
      "ElonMusk": 2500,
      "ount": 2501,
      "AirdropDet": 2502,
      "HODL": 2503,
      "Ġcost": 2504,
      "Ġgrowth": 2505,
      "ĠCheck": 2506,
      "Ġneeds": 2507,
      "Me": 2508,
      "ĠIS": 2509,
      "Ġdump": 2510,
      "giveaway": 2511,
      "chnical": 2512,
      "Ġenough": 2513,
      "Ġpull": 2514,
      "aining": 2515,
      "Ġwaiting": 2516,
      "âĸĵâĸĵ": 2517,
      "ĠðŁĮ": 2518,
      "Ġdecentral": 2519,
      "aper": 2520,
      "edia": 2521,
      "Ġcorre": 2522,
      "ĠðŁĳĩ": 2523,
      "finite": 2524,
      "ote": 2525,
      "aa": 2526,
      "ied": 2527,
      "cell": 2528,
      "Ġgreen": 2529,
      "Ġ25": 2530,
      "istrib": 2531,
      "kr": 2532,
      "NA": 2533,
      "ĠðŁļ¨": 2534,
      "ĠFOR": 2535,
      "andle": 2536,
      "Ġgonna": 2537,
      "ðŁĳī": 2538,
      "ler": 2539,
      "Ġsuccessful": 2540,
      "urity": 2541,
      "Ġdri": 2542,
      "PS": 2543,
      "Ġthanks": 2544,
      "Ġlikely": 2545,
      "Open": 2546,
      "Ġtrust": 2547,
      "Ġinf": 2548,
      "LUNA": 2549,
      "acy": 2550,
      "ĠâĢĵ": 2551,
      "Ġhead": 2552,
      "tt": 2553,
      "ĠðŁ¥": 2554,
      "ĥ£": 2555,
      "Ġtot": 2556,
      "Ġclear": 2557,
      "rs": 2558,
      "IO": 2559,
      "price": 2560,
      "fb": 2561,
      "Ġbetween": 2562,
      "Ġsmall": 2563,
      "just": 2564,
      "ha": 2565,
      "Ġcare": 2566,
      "Ġchance": 2567,
      "ury": 2568,
      "bably": 2569,
      "Ġeasy": 2570,
      "ipple": 2571,
      "TRON": 2572,
      "ene": 2573,
      "reate": 2574,
      "Ġperson": 2575,
      "But": 2576,
      "ĠSp": 2577,
      "Ġproduct": 2578,
      "Ne": 2579,
      "Ġfact": 2580,
      "esty": 2581,
      "nfts": 2582,
      "Ġstarted": 2583,
      "Ġplease": 2584,
      "reedom": 2585,
      "Ġyesterday": 2586,
      "Ġpurch": 2587,
      "Ġhal": 2588,
      "ðŁĩ¸": 2589,
      "ster": 2590,
      "ARMY": 2591,
      "Ġstay": 2592,
      "BSCGems": 2593,
      "Ġtokens": 2594,
      "Ġwonder": 2595,
      "More": 2596,
      "CM": 2597,
      "bsite": 2598,
      "Ġtimes": 2599,
      "sw": 2600,
      "ĠInc": 2601,
      "ĠTwitter": 2602,
      "arming": 2603,
      "2021": 2604,
      "ailable": 2605,
      "ĠLI": 2606,
      "Ġtech": 2607,
      "Ġpossible": 2608,
      "irm": 2609,
      "ead": 2610,
      "Official": 2611,
      "Ġmean": 2612,
      "ĠGreat": 2613,
      "head": 2614,
      "Ġmajor": 2615,
      "Ġincl": 2616,
      "ðĿĹ²": 2617,
      "Ġmust": 2618,
      "Ġasset": 2619,
      "NY": 2620,
      "âļ¡": 2621,
      "ĠMy": 2622,
      "eng": 2623,
      "Ġeconom": 2624,
      "ULL": 2625,
      "arl": 2626,
      "Ġadv": 2627,
      "cap": 2628,
      "Ġquest": 2629,
      "Ġfees": 2630,
      "Check": 2631,
      "Ġ(+": 2632,
      "place": 2633,
      "RSI": 2634,
      "ðŁĶ»ðŁĶ»": 2635,
      "Ġve": 2636,
      "etc": 2637,
      "Ġseen": 2638,
      "FC": 2639,
      "Ġâ¬": 2640,
      "Ġtransactions": 2641,
      "Ġchannel": 2642,
      "saylor": 2643,
      "Ġnothing": 2644,
      "joy": 2645,
      "JPM": 2646,
      "Ġspace": 2647,
      "Ġanyone": 2648,
      "army": 2649,
      "arg": 2650,
      "ION": 2651,
      "ĠToken": 2652,
      "ecentral": 2653,
      "Qu": 2654,
      "72": 2655,
      "Ġbearish": 2656,
      "kend": 2657,
      "ĠBUY": 2658,
      "rat": 2659,
      "ĠComp": 2660,
      "los": 2661,
      "ĠðŁĳĢ": 2662,
      "AMD": 2663,
      "ili": 2664,
      "Ġcontinue": 2665,
      "Last": 2666,
      "Ġarea": 2667,
      "aren": 2668,
      "Ġfix": 2669,
      "Air": 2670,
      "ivot": 2671,
      "ĠX": 2672,
      "Ġgovern": 2673,
      "Ġtrying": 2674,
      "cast": 2675,
      "ĠHold": 2676,
      "Ġimportant": 2677,
      "Ġint": 2678,
      "There": 2679,
      "obi": 2680,
      "ization": 2681,
      "Ġliquid": 2682,
      "ĠðŁĺĤ": 2683,
      "Ġprofits": 2684,
      "SN": 2685,
      "OK": 2686,
      "ier": 2687,
      "for": 2688,
      "ta": 2689,
      "81": 2690,
      "Ġisn": 2691,
      "----": 2692,
      "Ġshares": 2693,
      "fect": 2694,
      "ards": 2695,
      "Ġactually": 2696,
      "mm": 2697,
      "VID": 2698,
      "BCH": 2699,
      "Ġinformation": 2700,
      "ðŁļĢðŁļĢðŁļĢ": 2701,
      "82": 2702,
      "),": 2703,
      "CRYPTO": 2704,
      "Ġcomes": 2705,
      "Shiba": 2706,
      "Ġusers": 2707,
      "Ġrel": 2708,
      "Ġcurrently": 2709,
      "ational": 2710,
      "cellent": 2711,
      "TION": 2712,
      "!!!!": 2713,
      "meric": 2714,
      "lad": 2715,
      "ĠðŁĵĪ": 2716,
      "UST": 2717,
      "IM": 2718,
      "Ġlatest": 2719,
      "chie": 2720,
      "Ġ]-": 2721,
      "Ġlater": 2722,
      "ĠRes": 2723,
      "not": 2724,
      "Ġdem": 2725,
      "del": 2726,
      "Defi": 2727,
      "Ġfriends": 2728,
      "ĠÂ": 2729,
      "Cash": 2730,
      "tslaq": 2731,
      "EST": 2732,
      "by": 2733,
      "bo": 2734,
      "rid": 2735,
      "Ġ23": 2736,
      "Ġshit": 2737,
      "iver": 2738,
      "br": 2739,
      "uesparrow": 2740,
      "Ġelse": 2741,
      "ched": 2742,
      "Ġsomeone": 2743,
      "ĠCardano": 2744,
      "uc": 2745,
      "Get": 2746,
      "trader": 2747,
      "Money": 2748,
      "ĠEar": 2749,
      "ask": 2750,
      "Ġprof": 2751,
      "aff": 2752,
      "Ġmassive": 2753,
      "Ġgain": 2754,
      "Ġsignal": 2755,
      "ype": 2756,
      "Ġcompanies": 2757,
      "Ġturn": 2758,
      "ries": 2759,
      "92": 2760,
      "Eth": 2761,
      "ĠSell": 2762,
      "Ġfail": 2763,
      "Ġfiat": 2764,
      "Ġ[@": 2765,
      "Ġaccept": 2766,
      "ĠAmazon": 2767,
      "ware": 2768,
      "âĢįâĻ": 2769,
      "Ġsw": 2770,
      "spy": 2771,
      "oto": 2772,
      "Ġartic": 2773,
      "Ġfam": 2774,
      "Ġbegin": 2775,
      "ocus": 2776,
      "ĠBinance": 2777,
      "ĠSee": 2778,
      "Let": 2779,
      "Ġlocation": 2780,
      "UP": 2781,
      "Ġcomplet": 2782,
      "ĠWhy": 2783,
      "Ku": 2784,
      "inspector": 2785,
      "orn": 2786,
      "Ġ500": 2787,
      "ĠDay": 2788,
      "goog": 2789,
      "Ġgets": 2790,
      "ternet": 2791,
      "Ġgener": 2792,
      "aken": 2793,
      "CNBC": 2794,
      "Ġmain": 2795,
      "Ġpop": 2796,
      "iam": 2797,
      "TheMoon": 2798,
      "Ġplace": 2799,
      "vin": 2800,
      "Ġcase": 2801,
      "Ġassets": 2802,
      "Ġ..": 2803,
      "trade": 2804,
      "KE": 2805,
      "ically": 2806,
      "Every": 2807,
      "WH": 2808,
      "Ġold": 2809,
      "Ġstore": 2810,
      "Ġ]-[": 2811,
      "nftcollector": 2812,
      "Ġpres": 2813,
      "ĠLong": 2814,
      "EG": 2815,
      "ather": 2816,
      "Tube": 2817,
      "ºðŁĩ¸": 2818,
      "ness": 2819,
      "fol": 2820,
      "ĠETF": 2821,
      "meme": 2822,
      "ĠPrices": 2823,
      "uro": 2824,
      "side": 2825,
      "Res": 2826,
      "Ġcomm": 2827,
      "Ġtrue": 2828,
      "Ġonce": 2829,
      "Ġvault": 2830,
      "Ġwrong": 2831,
      "Airdropinspector": 2832,
      "ustry": 2833,
      "iot": 2834,
      "Ġalmost": 2835,
      "uth": 2836,
      "Ġ2018": 2837,
      "buy": 2838,
      "ĠAT": 2839,
      "Ġener": 2840,
      "Ġhistory": 2841,
      "cosystem": 2842,
      "Ġcra": 2843,
      "RA": 2844,
      "Ġleast": 2845,
      "Ġinnov": 2846,
      "Ġduring": 2847,
      "urre": 2848,
      "Ġcust": 2849,
      "ĠModel": 2850,
      "Ġ28": 2851,
      "DOT": 2852,
      "WM": 2853,
      "investment": 2854,
      "Ġcontract": 2855,
      "Ġhighs": 2856,
      "Ġsend": 2857,
      "Real": 2858,
      "ĠProject": 2859,
      "Ġcontro": 2860,
      "ung": 2861,
      "Ġ29": 2862,
      "Ġred": 2863,
      "Ġread": 2864,
      "Ġpriv": 2865,
      "gether": 2866,
      "ones": 2867,
      "ĠAND": 2868,
      "Ġinter": 2869,
      "coins": 2870,
      "Mon": 2871,
      "ivid": 2872,
      "finitely": 2873,
      "Why": 2874,
      "ĠUser": 2875,
      "opping": 2876,
      "Up": 2877,
      "300": 2878,
      "Exchange": 2879,
      "ĠBNB": 2880,
      "Ġlevels": 2881,
      "Block": 2882,
      "DO": 2883,
      "ĠHere": 2884,
      "Ġreco": 2885,
      "comm": 2886,
      "Ġenergy": 2887,
      "loki": 2888,
      "inu": 2889,
      "Ġdifferent": 2890,
      "alance": 2891,
      "Ġbeh": 2892,
      "DX": 2893,
      "Ġdisc": 2894,
      "PR": 2895,
      "ĠDaily": 2896,
      "Ġcy": 2897,
      "Ġanything": 2898,
      "rob": 2899,
      "VX": 2900,
      "Sea": 2901,
      "gg": 2902,
      "Ġlol": 2903,
      "Ġseems": 2904,
      "Ġproble": 2905,
      "xgem": 2906,
      "AI": 2907,
      "Ġcalled": 2908,
      "ONE": 2909,
      "imate": 2910,
      "cing": 2911,
      "Ġ*": 2912,
      "Ġmoving": 2913,
      "à¥": 2914,
      "ern": 2915,
      "appy": 2916,
      "tw": 2917,
      "Today": 2918,
      "Ġ22": 2919,
      "CT": 2920,
      "LU": 2921,
      "iting": 2922,
      "urrecy": 2923,
      "Ġcompet": 2924,
      "Ġgiving": 2925,
      "BP": 2926,
      "Ġdollar": 2927,
      "ection": 2928,
      "yn": 2929,
      "Ġrally": 2930,
      "hip": 2931,
      "eekly": 2932,
      "Ġorder": 2933,
      "cryptocurrecy": 2934,
      "ðŁ§": 2935,
      "ðŁĽ": 2936,
      "ĠÃ¢": 2937,
      "Ġequ": 2938,
      "Ġhopefully": 2939,
      "Ġtransfer": 2940,
      "Ġ@$": 2941,
      "ðŁĳĢ": 2942,
      "ley": 2943,
      "ILL": 2944,
      "Ġsales": 2945,
      "ĠAr": 2946,
      "ney": 2947,
      "%).": 2948,
      "ĠAre": 2949,
      "hunt": 2950,
      "cess": 2951,
      "Ġtowards": 2952,
      "Ġtechnology": 2953,
      "Ġholders": 2954,
      "ðŁį": 2955,
      "Ġdire": 2956,
      "Mining": 2957,
      "Ġfav": 2958,
      "¸ģ": 2959,
      "Ġavailable": 2960,
      "ðŁĳį": 2961,
      "GS": 2962,
      "XLM": 2963,
      "Ġbiggest": 2964,
      "Ġmind": 2965,
      "Ġquick": 2966,
      "coinbase": 2967,
      "Fin": 2968,
      "Ġanalysis": 2969,
      "ient": 2970,
      "Ġeach": 2971,
      "Ġrest": 2972,
      "ism": 2973,
      "ering": 2974,
      "ðŁ¤ĳ": 2975,
      "ntry": 2976,
      "uren": 2977,
      "Ġmax": 2978,
      "ĠProfit": 2979,
      "ird": 2980,
      "ðŁİī": 2981,
      "airdropinspect": 2982,
      "Ġport": 2983,
      "Ġable": 2984,
      "ðŁĳĩðŁĳĩ": 2985,
      "ĠBig": 2986,
      "Stop": 2987,
      "Ġzesty": 2988,
      "Ġfuck": 2989,
      "ĠXRP": 2990,
      "They": 2991,
      "Ġbring": 2992,
      "iment": 2993,
      "Ġvolat": 2994,
      "Ġsit": 2995,
      "Big": 2996,
      "Ġ2017": 2997,
      "Ġfore": 2998,
      "IOTA": 2999,
      "Ġbased": 3000,
      "new": 3001,
      "BS": 3002,
      "ĠAM": 3003,
      "Phone": 3004,
      "ador": 3005,
      "âĺ": 3006,
      "afem": 3007,
      "alv": 3008,
      "Ġweekend": 3009,
      "ðŁĵī": 3010,
      "PRO": 3011,
      "otal": 3012,
      "Ġglobal": 3013,
      "Gold": 3014,
      "Ġaction": 3015,
      "asing": 3016,
      "folio": 3017,
      "Ġtotal": 3018,
      "å¸ģ": 3019,
      "ĠðŁļĢðŁļĢðŁļĢ": 3020,
      "ĠSEC": 3021,
      "Ġpaid": 3022,
      "trend": 3023,
      "erve": 3024,
      "GN": 3025,
      "ĠCl": 3026,
      "ĠQu": 3027,
      "Ġpol": 3028,
      "reng": 3029,
      "HT": 3030,
      "rill": 3031,
      "Ġfunds": 3032,
      "DR": 3033,
      "2020": 3034,
      "Go": 3035,
      "%.": 3036,
      "tell": 3037,
      "urency": 3038,
      "Ġmeans": 3039,
      "ael": 3040,
      "Ġsignals": 3041,
      "Ġdevelopment": 3042,
      "ane": 3043,
      "Ġsent": 3044,
      "With": 3045,
      "coinhunt": 3046,
      "pm": 3047,
      "Ġmult": 3048,
      "Ġrep": 3049,
      "âĤ¿": 3050,
      "Ad": 3051,
      "coinhuntworld": 3052,
      "Ġlost": 3053,
      "Ġsocial": 3054,
      "graph": 3055,
      "pper": 3056,
      "cording": 3057,
      "ferral": 3058,
      "NFTGiveaway": 3059,
      "ðŁĺį": 3060,
      "Ġem": 3061,
      "Ġvalu": 3062,
      "BY": 3063,
      "Ġallow": 3064,
      "Ġreturn": 3065,
      "oom": 3066,
      "PY": 3067,
      "right": 3068,
      "Ġlo": 3069,
      "Ġseriously": 3070,
      "ĠNEW": 3071,
      "Now": 3072,
      "MarketCap": 3073,
      "One": 3074,
      "ither": 3075,
      "afemoon": 3076,
      "Ġsaying": 3077,
      "Ġreach": 3078,
      "ify": 3079,
      "ðŁĲĭ": 3080,
      "ists": 3081,
      "Ġprobably": 3082,
      "eps": 3083,
      "ouse": 3084,
      "iveaways": 3085,
      "Ġsug": 3086,
      "Ġpowered": 3087,
      "ĠTime": 3088,
      "tty": 3089,
      ".$": 3090,
      "ino": 3091,
      "Ġmined": 3092,
      "Ġpublic": 3093,
      "ears": 3094,
      "jack": 3095,
      "Ġetc": 3096,
      "à¸": 3097,
      "ĠðŁŁ": 3098,
      "ĠTrade": 3099,
      "Can": 3100,
      "baby": 3101,
      "EV": 3102,
      "Ġothers": 3103,
      "Ġâŀ¡ï¸ı": 3104,
      "Ġtogether": 3105,
      "Ġ(#": 3106,
      "Ġ%:": 3107,
      "Amazon": 3108,
      "ĠFriday": 3109,
      "ðŁĲ³": 3110,
      "Vari": 3111,
      "Ġdeal": 3112,
      "block": 3113,
      "MM": 3114,
      "ches": 3115,
      "ðŁ¦į": 3116,
      "ĠThank": 3117,
      "Ġthank": 3118,
      "ĠEvery": 3119,
      "KS": 3120,
      "Ġweak": 3121,
      "ired": 3122,
      "Ġbreakout": 3123,
      "pay": 3124,
      "Ġachie": 3125,
      "Ġforward": 3126,
      "ðĿĹ²ðĿĹ": 3127,
      "That": 3128,
      "Link": 3129,
      "rip": 3130,
      "Target": 3131,
      "Ġwr": 3132,
      "Ġmodel": 3133,
      "lymp": 3134,
      "Season": 3135,
      "bet": 3136,
      "Ġform": 3137,
      "coun": 3138,
      "BR": 3139,
      "Ġcars": 3140,
      "ris": 3141,
      "EE": 3142,
      "Ġtax": 3143,
      "onom": 3144,
      "Ġincrease": 3145,
      "Ġputs": 3146,
      "Ġwhole": 3147,
      "ĠBank": 3148,
      "ĠUP": 3149,
      "rist": 3150,
      "ages": 3151,
      "gress": 3152,
      "way": 3153,
      "aring": 3154,
      "%,": 3155,
      "Ġdecentralized": 3156,
      "ĠJuly": 3157,
      "Ġcollect": 3158,
      "official": 3159,
      "Ġexpl": 3160,
      "Ġau": 3161,
      "ichael": 3162,
      "ĠAug": 3163,
      "Ġairdrop": 3164,
      "loy": 3165,
      "drop": 3166,
      "Ġwithin": 3167,
      "ision": 3168,
      "aks": 3169,
      "ĠEarnings": 3170,
      "rength": 3171,
      "ĠOF": 3172,
      "vert": 3173,
      "ICE": 3174,
      "Ġnumber": 3175,
      "ico": 3176,
      "BAC": 3177,
      "Altcoins": 3178,
      "inger": 3179,
      "cash": 3180,
      "Ġdom": 3181,
      "Ġinflation": 3182,
      "iter": 3183,
      "ĠâĢĶ": 3184,
      "Ġaccum": 3185,
      "Mag": 3186,
      "Ġpush": 3187,
      "Ġâľ": 3188,
      "Ġshorts": 3189,
      "Ġmatter": 3190,
      "Variation": 3191,
      "reme": 3192,
      "Chainlink": 3193,
      "ĠGr": 3194,
      "hold": 3195,
      "ĠSHORT": 3196,
      "ĠLONG": 3197,
      "unch": 3198,
      "raud": 3199,
      "alvador": 3200,
      "spx": 3201,
      "Ġest": 3202,
      "Ġdue": 3203,
      "IWM": 3204,
      "Ġsale": 3205,
      "kt": 3206,
      "Ġcoll": 3207,
      "Ġdistrib": 3208,
      "Ġbag": 3209,
      "rades": 3210,
      "Ġannounce": 3211,
      "Ġhaving": 3212,
      "Cryptocurency": 3213,
      "Ġadded": 3214,
      "off": 3215,
      "ðŁ¤£": 3216,
      "Ġ2019": 3217,
      "soft": 3218,
      "ĠUpdate": 3219,
      "versal": 3220,
      "ohn": 3221,
      "CoinMarketCap": 3222,
      "TA": 3223,
      "Ġmedia": 3224,
      "daq": 3225,
      "Pivot": 3226,
      "PI": 3227,
      "Ġ)": 3228,
      "Ġchang": 3229,
      "oke": 3230,
      "ELL": 3231,
      "El": 3232,
      "ĠWhen": 3233,
      "Ġcour": 3234,
      "YC": 3235,
      "Ġ63": 3236,
      "Ġsuggest": 3237,
      "els": 3238,
      "ĠCR": 3239,
      "ource": 3240,
      "ooking": 3241,
      "arts": 3242,
      "ĠOf": 3243,
      "'d": 3244,
      "Ġvisit": 3245,
      "Here": 3246,
      "Ġpe": 3247,
      "Ġaverage": 3248,
      "Ġtrades": 3249,
      "Ġstate": 3250,
      "asdaq": 3251,
      "ĠRet": 3252,
      "Watch": 3253,
      "ðŁĻĮ": 3254,
      "rategy": 3255,
      "After": 3256,
      "Ġrece": 3257,
      "ham": 3258,
      "Litecoin": 3259,
      "Ġreward": 3260,
      "ĠAd": 3261,
      "ALL": 3262,
      "volution": 3263,
      "uted": 3264,
      "Ġwatching": 3265,
      "venue": 3266,
      "marketing": 3267,
      "TF": 3268,
      "aving": 3269,
      "ĠAL": 3270,
      "INTC": 3271,
      "ĠOpen": 3272,
      "Ġdefinitely": 3273,
      "BO": 3274,
      "REE": 3275,
      "Ġrate": 3276,
      "Ġwants": 3277,
      "Ġhttp": 3278,
      "Ġinvesting": 3279,
      "iction": 3280,
      "ĠPM": 3281,
      "Ġinde": 3282,
      "En": 3283,
      "ĠBlockchain": 3284,
      "ĠWatch": 3285,
      "KuCoin": 3286,
      "agine": 3287,
      "Ġstrate": 3288,
      "KR": 3289,
      "Âı": 3290,
      "ĠBit": 3291,
      "ERE": 3292,
      "ĠOne": 3293,
      "Ġgains": 3294,
      "Global": 3295,
      "aster": 3296,
      "Ĥï¸ı": 3297,
      "ALE": 3298,
      "Ġahead": 3299,
      "ured": 3300,
      "ĠMonday": 3301,
      "ĠCon": 3302,
      "COM": 3303,
      "ien": 3304,
      "ĠJan": 3305,
      "BUY": 3306,
      "ĠDis": 3307,
      "Twitter": 3308,
      "Ġiss": 3309,
      "body": 3310,
      "ĠCryptocurrency": 3311,
      "Ġdemand": 3312,
      "SB": 3313,
      "ðŁĩ¹": 3314,
      "Ġincreased": 3315,
      "ĠAmeric": 3316,
      "ĠEn": 3317,
      "ĠPay": 3318,
      "reg": 3319,
      "cr": 3320,
      "Long": 3321,
      "Ġinterested": 3322,
      "Ġhum": 3323,
      "aps": 3324,
      "ĠToday": 3325,
      "Ġdropped": 3326,
      "âĢĶ": 3327,
      "net": 3328,
      "pril": 3329,
      "400": 3330,
      "==": 3331,
      "urs": 3332,
      "Ġadoption": 3333,
      "DJ": 3334,
      "Ġsl": 3335,
      "cardano": 3336,
      "orts": 3337,
      "Ġcapital": 3338,
      "Entry": 3339,
      "Bank": 3340,
      "Tech": 3341,
      "Gr": 3342,
      "Ġannoun": 3343,
      "âĢįâĻĤï¸ı": 3344,
      "Ġsafe": 3345,
      "Ġindustry": 3346,
      "avid": 3347,
      "Ġx": 3348,
      "Ġgames": 3349,
      "ĠTop": 3350,
      "moon": 3351,
      "yp": 3352,
      "EOS": 3353,
      "Ġperfect": 3354,
      "ilt": 3355,
      "Ġtalking": 3356,
      "lex": 3357,
      "ĠBy": 3358,
      "Ġcontrol": 3359,
      "ymbol": 3360,
      "rated": 3361,
      "SL": 3362,
      "qq": 3363,
      "ollars": 3364,
      "Ġthough": 3365,
      "Ġrise": 3366,
      "irt": 3367,
      "ĠMe": 3368,
      "Ġpretty": 3369,
      "Ġkind": 3370,
      "bers": 3371,
      "Ġtraders": 3372,
      "ĠNOT": 3373,
      "zos": 3374,
      "Ġups": 3375,
      "AirdropSt": 3376,
      "Ġoptions": 3377,
      "Ġinclud": 3378,
      "AirdropStario": 3379,
      "tok": 3380,
      "umm": 3381,
      "che": 3382,
      "ran": 3383,
      "ertain": 3384,
      "Meta": 3385,
      "Ġdiscuss": 3386,
      "ulations": 3387,
      "lement": 3388,
      "Ġstand": 3389,
      "âĢĺ": 3390,
      "ĠChng": 3391,
      "Le": 3392,
      "bin": 3393,
      "hodl": 3394,
      "Sw": 3395,
      "Ġlose": 3396,
      "ially": 3397,
      "ĠChain": 3398,
      "Ġstarting": 3399,
      "900": 3400,
      "stario": 3401,
      "redit": 3402,
      "Ġcomplete": 3403,
      "âĿ": 3404,
      "rupt": 3405,
      ".âĢĿ": 3406,
      "Yield": 3407,
      "stamp": 3408,
      "ĠFin": 3409,
      "Ġ26": 3410,
      "SS": 3411,
      "Ġslow": 3412,
      "ĠApp": 3413,
      "Ġ48": 3414,
      "Ġâĩ": 3415,
      "Ġyourself": 3416,
      "Investing": 3417,
      "etails": 3418,
      "Ġmomentum": 3419,
      "ĠMAR": 3420,
      "ability": 3421,
      "ĠâĢ¦": 3422,
      "Sait": 3423,
      "Ġcustom": 3424,
      "CA": 3425,
      "put": 3426,
      "Ġwebsite": 3427,
      "Community": 3428,
      "ights": 3429,
      "NFTartist": 3430,
      "ides": 3431,
      "BscPitbull": 3432,
      "Ġrewards": 3433,
      "ĠJune": 3434,
      "ĠðŁŁ¢": 3435,
      "DAO": 3436,
      "Airdropstario": 3437,
      "AND": 3438,
      "ĠLike": 3439,
      "elf": 3440,
      "term": 3441,
      "ingle": 3442,
      "ĠYour": 3443,
      "search": 3444,
      "Ġmine": 3445,
      "Ġcharts": 3446,
      "solute": 3447,
      "acc": 3448,
      "Thanks": 3449,
      "rew": 3450,
      "Ġfocus": 3451,
      "ðŁĴª": 3452,
      "Mar": 3453,
      "ku": 3454,
      "ðŁı¼": 3455,
      "Ġ1000": 3456,
      "Ġfac": 3457,
      "ANCE": 3458,
      "onus": 3459,
      "Pay": 3460,
      "Ġword": 3461,
      "00000": 3462,
      "ainu": 3463,
      "Ġcandle": 3464,
      "oken": 3465,
      "Ġcross": 3466,
      "Tether": 3467,
      "core": 3468,
      "urther": 3469,
      "Tokens": 3470,
      "Seasonal": 3471,
      "Ġ27": 3472,
      "bb": 3473,
      ".#": 3474,
      "fintech": 3475,
      "Ġâŀ¨": 3476,
      "Ġknows": 3477,
      "Tron": 3478,
      "Ġbanks": 3479,
      "ĠVery": 3480,
      "Bl": 3481,
      "you": 3482,
      "ude": 3483,
      "Ġguess": 3484,
      "ĠNOW": 3485,
      "ĠRE": 3486,
      "rep": 3487,
      "Ġabsolute": 3488,
      "ĠGMT": 3489,
      "ĠAt": 3490,
      "Great": 3491,
      "VIX": 3492,
      "By": 3493,
      "Ġref": 3494,
      "DATE": 3495,
      "Giveaways": 3496,
      "ÂłÂłÂł": 3497,
      "ĠAm": 3498,
      "ibu": 3499,
      "Live": 3500,
      "metaverse": 3501,
      "Peter": 3502,
      "Ġstrength": 3503,
      "ĠGold": 3504,
      "ĠðŁĳī": 3505,
      "ĠSe": 3506,
      "illed": 3507,
      "ached": 3508,
      "azine": 3509,
      "Min": 3510,
      "Ġcreate": 3511,
      "Currency": 3512,
      "Ġexcellent": 3513,
      "ðŁĴ´": 3514,
      "Ġter": 3515,
      "Ġfinally": 3516,
      "ĠOver": 3517,
      "Ġmar": 3518,
      "ĠAc": 3519,
      "ape": 3520,
      "Are": 3521,
      "Earn": 3522,
      "ĠBI": 3523,
      "ĠĊĠ": 3524,
      "ĠCurrent": 3525,
      "ĠNice": 3526,
      "Ġperform": 3527,
      "ĠLe": 3528,
      "Ġsub": 3529,
      "ker": 3530,
      "Ġpick": 3531,
      "Will": 3532,
      "ensus": 3533,
      "Ġcool": 3534,
      "ĠBest": 3535,
      "Ġspot": 3536,
      "pand": 3537,
      "âļ": 3538,
      "Ġpass": 3539,
      "oor": 3540,
      "gn": 3541,
      "GMT": 3542,
      "Ġlosses": 3543,
      "FA": 3544,
      "Ġlim": 3545,
      "Farming": 3546,
      "ends": 3547,
      "cially": 3548,
      "Ġcode": 3549,
      "alls": 3550,
      "icrosoft": 3551,
      "ĠMin": 3552,
      "Ġamount": 3553,
      "DAQ": 3554,
      "iliate": 3555,
      "ĠRead": 3556,
      "Ġlows": 3557,
      "âĦ¹": 3558,
      "ĠINR": 3559,
      "pitbull": 3560,
      "Who": 3561,
      "earch": 3562,
      "Ġ--": 3563,
      "ament": 3564,
      "Ġroad": 3565,
      "Ġrele": 3566,
      "CY": 3567,
      "gold": 3568,
      "assic": 3569,
      "Change": 3570,
      "Ġà¤": 3571,
      "NDX": 3572,
      "zz": 3573,
      "opia": 3574,
      "Ġuni": 3575,
      "ius": 3576,
      "ances": 3577,
      "ĠFutures": 3578,
      "dom": 3579,
      "ðĿĺ": 3580,
      "Am": 3581,
      "Ġpositive": 3582,
      "Ġpercent": 3583,
      "Ġgovernment": 3584,
      "yes": 3585,
      "ĠðŁ§": 3586,
      "fr": 3587,
      "met": 3588,
      "cture": 3589,
      "reci": 3590,
      "ba": 3591,
      "ĠCH": 3592,
      "Ġpayment": 3593,
      "Ġexpected": 3594,
      "han": 3595,
      "AIN": 3596,
      "Sc": 3597,
      "Ġfeature": 3598,
      "ðŁļĢðŁļĢðŁļĢðŁļĢ": 3599,
      "Ġentry": 3600,
      "Ġcontinues": 3601,
      "ðŁĩ¹ðŁĩ·": 3602,
      "ients": 3603,
      "Ġcentral": 3604,
      "KEN": 3605,
      "ality": 3606,
      "Ġsurpr": 3607,
      "krain": 3608,
      "Ġgiven": 3609,
      "Ġed": 3610,
      "Ġattract": 3611,
      "ðŁļ¨ðŁļ¨": 3612,
      "Ġlos": 3613,
      "âĢ¯âĢ¯âĢ¯": 3614,
      "ASDAQ": 3615,
      "Ġentire": 3616,
      "Ġpattern": 3617,
      "Ġeth": 3618,
      "ony": 3619,
      "Ġ64": 3620,
      "Hey": 3621,
      "ifty": 3622,
      "Ġbas": 3623,
      "Ġ00": 3624,
      "Ġwar": 3625,
      "akeswap": 3626,
      "alert": 3627,
      "Options": 3628,
      "mbers": 3629,
      "ower": 3630,
      "arb": 3631,
      "Ġrecord": 3632,
      "XT": 3633,
      "ister": 3634,
      "inst": 3635,
      "Ġmaybe": 3636,
      "Some": 3637,
      "ĤðĿĲ": 3638,
      "DEX": 3639,
      "ðŁĻı": 3640,
      "Ġquestion": 3641,
      "ka": 3642,
      "Ġlarge": 3643,
      "Ġalert": 3644,
      "Ġzone": 3645,
      "ĠBULL": 3646,
      "įðĿĲ": 3647,
      "alysts": 3648,
      "iddle": 3649,
      "ĢðĿĲ": 3650,
      "Ġportfolio": 3651,
      "led": 3652,
      "Ġbehind": 3653,
      "Ġtook": 3654,
      "ŃĲ": 3655,
      "agement": 3656,
      "Ġ38": 3657,
      "Ġclaiming": 3658,
      "WE": 3659,
      "Hu": 3660,
      "Ġworks": 3661,
      "Signals": 3662,
      "ĠApril": 3663,
      "Ġste": 3664,
      "ĠSer": 3665,
      "Ġoffic": 3666,
      "Ġwish": 3667,
      "Ġhappens": 3668,
      "NO": 3669,
      "Ġhome": 3670,
      "Ġ:)": 3671,
      "erts": 3672,
      "?!": 3673,
      "sec": 3674,
      "Ve": 3675,
      "Ġburn": 3676,
      "ï¸ıâĥ£": 3677,
      "Ġmeet": 3678,
      "ðĿĲĤðĿĲ": 3679,
      "ĠðŁļĢðŁļĢ": 3680,
      "YieldFarming": 3681,
      "inh": 3682,
      "ĩðĿĲ": 3683,
      "REAK": 3684,
      "ĠBE": 3685,
      "ĠðĿĲģ": 3686,
      "MOON": 3687,
      "dc": 3688,
      "ulate": 3689,
      "Ġhand": 3690,
      "ĠPer": 3691,
      "irus": 3692,
      "osition": 3693,
      "Ġsingle": 3694,
      "OpenSea": 3695,
      "Ġclosed": 3696,
      "China": 3697,
      "KU": 3698,
      "ðĿĲĦ": 3699,
      "ĠðĿĲĳðĿĲ": 3700,
      "aire": 3701,
      "ĠNFTs": 3702,
      "MU": 3703,
      "technology": 3704,
      "Sell": 3705,
      "ĦðĿĲĴ": 3706,
      "Time": 3707,
      "ĠðĿĲĦðĿĲ": 3708,
      "Ġneg": 3709,
      "Ġkoin": 3710,
      "ĢðĿĲįðĿĲ": 3711,
      "Ġbulls": 3712,
      "Ġside": 3713,
      "ĢðĿĲĵðĿĲ": 3714,
      "ðĿĲĵðĿĲĤ": 3715,
      "ling": 3716,
      "uts": 3717,
      "ĠðĿĲģðĿĲĵðĿĲĤ": 3718,
      "ĳðĿĲĺ": 3719,
      "BTCUSDT": 3720,
      "ĢðĿĲĵðĿĲĦðĿĲĴ": 3721,
      "ĠðĿĲĦðĿĲĹ": 3722,
      "ĨðĿĲĦ": 3723,
      "Ġes": 3724,
      "ðĿĲĤðĿĲĩðĿĲ": 3725,
      "ostopia": 3726,
      "ðĿĲĤðĿĲĩðĿĲĢðĿĲįðĿĲ": 3727,
      "robostopia": 3728,
      "ðĿĲĵðĿĲĳðĿĲĺ": 3729,
      "ĠðĿĲĦðĿĲĹðĿĲĤðĿĲĩðĿĲĢðĿĲįðĿĲ": 3730,
      "ĠðĿĲĦðĿĲĹðĿĲĤðĿĲĩðĿĲĢðĿĲįðĿĲĨðĿĲĦ": 3731,
      "Ġvebitcoin": 3732,
      "ĠðĿĲĳðĿĲĢðĿĲĵðĿĲĦðĿĲĴ": 3733,
      "Ġparibu": 3734,
      "Ġkoinim": 3735,
      "where": 3736,
      "Ġfavor": 3737,
      "ports": 3738,
      "son": 3739,
      "Ġfurther": 3740,
      "Short": 3741,
      "WMT": 3742,
      "oe": 3743,
      "load": 3744,
      "ference": 3745,
      "markets": 3746,
      "Olymp": 3747,
      "Ġpartners": 3748,
      "rex": 3749,
      "Ġvolatility": 3750,
      "iving": 3751,
      "Carl": 3752,
      "play": 3753,
      "oving": 3754,
      "Ġâĩ¨": 3755,
      "Ġdollars": 3756,
      "agram": 3757,
      "log": 3758,
      "Ġstuff": 3759,
      "ĠðŁĲ³": 3760,
      "Of": 3761,
      "illions": 3762,
      "solana": 3763,
      "exchange": 3764,
      "Project": 3765,
      "Ġmet": 3766,
      "ĠiPhone": 3767,
      "ja": 3768,
      "flu": 3769,
      "no": 3770,
      "Ripple": 3771,
      "ltc": 3772,
      "Ġjob": 3773,
      "arity": 3774,
      "ev": 3775,
      ";&": 3776,
      "ĠDown": 3777,
      "Ġart": 3778,
      "Ġarticle": 3779,
      "ollinger": 3780,
      "Ġ45": 3781,
      "Pre": 3782,
      "swap": 3783,
      "QU": 3784,
      "ole": 3785,
      "DIA": 3786,
      "ety": 3787,
      "ramer": 3788,
      "Ä°": 3789,
      "Ġopin": 3790,
      "ĠFed": 3791,
      "800": 3792,
      "Ġproblem": 3793,
      "Ġwealth": 3794,
      "TG": 3795,
      "Ġgap": 3796,
      "Im": 3797,
      "bu": 3798,
      "Support": 3799,
      "Ġcheap": 3800,
      "@_": 3801,
      "Con": 3802,
      "Ġzero": 3803,
      "Trader": 3804,
      "Ġexcited": 3805,
      "Ġincome": 3806,
      "affiliate": 3807,
      "astic": 3808,
      "Ġecosystem": 3809,
      "Ġretest": 3810,
      "za": 3811,
      "Sch": 3812,
      "Ġhalf": 3813,
      "luna": 3814,
      "trx": 3815,
      "OUR": 3816,
      "vs": 3817,
      "Ġreported": 3818,
      "utions": 3819,
      "Art": 3820,
      "ĠMarch": 3821,
      "Bullish": 3822,
      "nftcollectors": 3823,
      "Ġ!!": 3824,
      "Ġbuilding": 3825,
      "Ġgrowing": 3826,
      "agirl": 3827,
      "fa": 3828,
      "outh": 3829,
      "commend": 3830,
      "ĠWorld": 3831,
      "ĠðŁĩºðŁĩ¸": 3832,
      "Ġnight": 3833,
      "Ġname": 3834,
      "IVE": 3835,
      "py": 3836,
      "YouTube": 3837,
      "World": 3838,
      "zi": 3839,
      "dis": 3840,
      "Ġlaun": 3841,
      "Ġenjoy": 3842,
      "Ġmembers": 3843,
      "Ġgroup": 3844,
      "Ġinstead": 3845,
      "arent": 3846,
      "ply": 3847,
      "600": 3848,
      "SK": 3849,
      "DU": 3850,
      "ilver": 3851,
      "more": 3852,
      "Ġbene": 3853,
      "jim": 3854,
      "Ġ90": 3855,
      "Ġâŀ¦": 3856,
      "SAFE": 3857,
      "India": 3858,
      "ald": 3859,
      "ï¼": 3860,
      "usic": 3861,
      "ĠĠĠĠĠĠĠĠĠĠĠĠ": 3862,
      "ERT": 3863,
      "Ġsimple": 3864,
      "ished": 3865,
      "FX": 3866,
      "Ġprot": 3867,
      "bitcoinnews": 3868,
      "ids": 3869,
      "Gems": 3870,
      "ĠKeep": 3871,
      "quee": 3872,
      "ðŁĴµ": 3873,
      "ures": 3874,
      "ĠðŁĵī": 3875,
      "iant": 3876,
      "ging": 3877,
      "AU": 3878,
      "INANCE": 3879,
      "Cryptos": 3880,
      "Ġstory": 3881,
      "ca": 3882,
      "Ġlaw": 3883,
      "Ġconsider": 3884,
      "700": 3885,
      "dit": 3886,
      "Ġstack": 3887,
      "utral": 3888,
      "Ġrunning": 3889,
      "game": 3890,
      "Ġâŀ½": 3891,
      "TL": 3892,
      "ĠFrom": 3893,
      "ĠCash": 3894,
      "Read": 3895,
      "ĠAnalysis": 3896,
      "Ëľ": 3897,
      "iful": 3898,
      "matic": 3899,
      "Ġagree": 3900,
      "average": 3901,
      "âĸĳâĸĳâĸĳâĸĳ": 3902,
      "ðŁĴ¸": 3903,
      "Ġunderrated": 3904,
      "Ġlargest": 3905,
      "nect": 3906,
      "Ġtype": 3907,
      "PL": 3908,
      "ĠOur": 3909,
      "tron": 3910,
      "Our": 3911,
      "ĠLive": 3912,
      "Ġservice": 3913,
      "ĠSec": 3914,
      "counts": 3915,
      "ĠYOU": 3916,
      "Ġforget": 3917,
      "ĠâĿ¤ï¸ı": 3918,
      "UB": 3919,
      "signals": 3920,
      "Ġaren": 3921,
      "ĠCRYPTO": 3922,
      "ĠMillion": 3923,
      "list": 3924,
      "Trend": 3925,
      "orex": 3926,
      "Ġeither": 3927,
      "rium": 3928,
      "ĠPlease": 3929,
      "ĠðŁĺİ": 3930,
      "ĠOnly": 3931,
      "ĠCont": 3932,
      "ounty": 3933,
      "ERS": 3934,
      "uation": 3935,
      "Ġreversal": 3936,
      "uk": 3937,
      "Ġaccess": 3938,
      "solid": 3939,
      "ITY": 3940,
      "Ġpress": 3941,
      "ein": 3942,
      "UTC": 3943,
      "AVE": 3944,
      "ĠBullish": 3945,
      "PIT": 3946,
      "ĠCor": 3947,
      "ovid": 3948,
      "bd": 3949,
      "Ġthinking": 3950,
      "Ġrich": 3951,
      "OMO": 3952,
      "Ġfutures": 3953,
      "ĠBillion": 3954,
      "Ġpayments": 3955,
      "Ġremember": 3956,
      "ued": 3957,
      "eeps": 3958,
      "hh": 3959,
      "Protocol": 3960,
      "ef": 3961,
      "urope": 3962,
      "ĠðŁĶ»": 3963,
      "cryptoart": 3964,
      "oooo": 3965,
      "Ġtold": 3966,
      "Ġbo": 3967,
      "Thank": 3968,
      "ĠHave": 3969,
      "Ġeng": 3970,
      "ivity": 3971,
      "BinanceCoin": 3972,
      "ĠIts": 3973,
      "bank": 3974,
      "kraine": 3975,
      "nfl": 3976,
      "ĠðŁ¤Ķ": 3977,
      "ĠĠĊĊ": 3978,
      "ANG": 3979,
      "Ġob": 3980,
      "Ġprevious": 3981,
      "Free": 3982,
      "Ġcycle": 3983,
      "nftcommunity": 3984,
      "ðŁĩ³": 3985,
      "Ġprivate": 3986,
      "KN": 3987,
      "ĠIT": 3988,
      "gs": 3989,
      "ules": 3990,
      "ĠTarget": 3991,
      "Ġinfo": 3992,
      "ication": 3993,
      "bc": 3994,
      "gems": 3995,
      "AXS": 3996,
      "DS": 3997,
      "Total": 3998,
      "organ": 3999,
      "Ġcrazy": 4000,
      "ĠDec": 4001,
      "next": 4002,
      "ðŁ¥³": 4003,
      "social": 4004,
      "Ġhappening": 4005,
      "umps": 4006,
      "Ġseeing": 4007,
      "ĠðŁĶ´": 4008,
      "ĠSep": 4009,
      "Ġprofession": 4010,
      "boy": 4011,
      "uu": 4012,
      "umb": 4013,
      "AKE": 4014,
      "NQ": 4015,
      "Dis": 4016,
      "Ġwall": 4017,
      "ĠGoogle": 4018,
      "cryptocrash": 4019,
      "Ġmess": 4020,
      "250": 4021,
      "Ġtwitter": 4022,
      "Ġadvice": 4023,
      "ĠBITCOIN": 4024,
      "oose": 4025,
      "ara": 4026,
      "ani": 4027,
      "Ġtakes": 4028,
      "ĠðŁĳį": 4029,
      "BabyDogeCoin": 4030,
      "Next": 4031,
      "BC": 4032,
      "SR": 4033,
      "ĠNext": 4034,
      "enn": 4035,
      "Ġsecurity": 4036,
      "tility": 4037,
      "hs": 4038,
      "Ġquarter": 4039,
      "ĠAfter": 4040,
      "Ġâĺ": 4041,
      "ancakeswap": 4042,
      "ises": 4043,
      "media": 4044,
      "Ġhodl": 4045,
      "Ġdirect": 4046,
      "Ġbl": 4047,
      "Ġbeaut": 4048,
      "Ġoper": 4049,
      "Ġexact": 4050,
      "ongrat": 4051,
      "âģ": 4052,
      "Rob": 4053,
      "Ġretail": 4054,
      "Ġcryptocurrencies": 4055,
      "Ġton": 4056,
      "Ġcreated": 4057,
      "tegr": 4058,
      "ĠSP": 4059,
      "uffy": 4060,
      "Ġinstit": 4061,
      "ĠTA": 4062,
      "ored": 4063,
      "â¬": 4064,
      "Play": 4065,
      "race": 4066,
      "FLO": 4067,
      "ĠExpect": 4068,
      "eff": 4069,
      "Ġcourse": 4070,
      "Ġfreedom": 4071,
      "ji": 4072,
      "Ġlonger": 4073,
      "Ġsave": 4074,
      "Ġshows": 4075,
      "ĠST": 4076,
      "Ġexperience": 4077,
      "Ġfamily": 4078,
      "Ġhear": 4079,
      "Ġpoints": 4080,
      "lm": 4081,
      "like": 4082,
      "Ġ39": 4083,
      "dy": 4084,
      "ĠPart": 4085,
      "ðŁĩ®": 4086,
      "over": 4087,
      "Date": 4088,
      "ĠðŁĴª": 4089,
      "Ġresearch": 4090,
      "VET": 4091,
      "Ġoffer": 4092,
      "Ġliquidity": 4093,
      "ĠOr": 4094,
      "ĠMining": 4095,
      "ðŁĵ¢": 4096,
      "lectric": 4097,
      "Ġ31": 4098,
      "SAFEMOON": 4099,
      "Ġupside": 4100,
      "âĿ¤ï¸ı": 4101,
      "Ġspec": 4102,
      "DE": 4103,
      "FL": 4104,
      "View": 4105,
      "ÂĿ": 4106,
      "ceed": 4107,
      "unk": 4108,
      "ĠWallet": 4109,
      "Ġce": 4110,
      "ĠAb": 4111,
      "Crash": 4112,
      "ðŁ¤Ķ": 4113,
      "ĠStill": 4114,
      "ening": 4115,
      "feg": 4116,
      "usdt": 4117,
      "ĠChange": 4118,
      "Your": 4119,
      "At": 4120,
      "unities": 4121,
      "pite": 4122,
      "AIR": 4123,
      "pos": 4124,
      "Ġcountry": 4125,
      "ĠCould": 4126,
      "Ġemp": 4127,
      "Ġnon": 4128,
      "ĠDoge": 4129,
      "Ġabsolutely": 4130,
      "ETC": 4131,
      "Ġnet": 4132,
      "ten": 4133,
      "NASDAQ": 4134,
      "bot": 4135,
      "Wallet": 4136,
      "legraph": 4137,
      "mot": 4138,
      "nflx": 4139,
      "mas": 4140,
      "Ġfraud": 4141,
      "eur": 4142,
      "alt": 4143,
      "War": 4144,
      "Ġtransferred": 4145,
      "COVID": 4146,
      "Ġmention": 4147,
      "aches": 4148,
      "iod": 4149,
      "mo": 4150,
      "ĠðĿĹ": 4151,
      "ĠSignal": 4152,
      "stockst": 4153,
      "Ġdistributed": 4154,
      "ĠWhale": 4155,
      "mium": 4156,
      "ified": 4157,
      "MANA": 4158,
      "vid": 4159,
      "fx": 4160,
      "BUSD": 4161,
      "ĠMar": 4162,
      "ibon": 4163,
      "Ġinc": 4164,
      "ĠALL": 4165,
      "Ġdesign": 4166,
      "ĠMA": 4167,
      "ĠHODL": 4168,
      "ï¿": 4169,
      "ĠFirst": 4170,
      "Digital": 4171,
      "FEGtoken": 4172,
      "MC": 4173,
      "ussia": 4174,
      "ivers": 4175,
      "Whale": 4176,
      "LOCK": 4177,
      "ĠðŁį": 4178,
      "Ġopinion": 4179,
      "Markets": 4180,
      "ORE": 4181,
      "Ġbuilt": 4182,
      "draw": 4183,
      "fered": 4184,
      "ðŁŁ©": 4185,
      "pet": 4186,
      "CryptoMining": 4187,
      "Ġpan": 4188,
      "Ġaccording": 4189,
      "finity": 4190,
      "Ġansw": 4191,
      "ĠOut": 4192,
      "Ġdouble": 4193,
      "Ġprogress": 4194,
      "Ġrevenue": 4195,
      "Ġremaining": 4196,
      "Ġacross": 4197,
      "XS": 4198,
      "Avg": 4199,
      "Â¸": 4200,
      "abs": 4201,
      "ĠHope": 4202,
      "ĠAD": 4203,
      "ðŁ¤©": 4204,
      "miss": 4205,
      "ĠðŁ¦": 4206,
      "ĠðŁı": 4207,
      "Bid": 4208,
      "Pol": 4209,
      "Ġbroke": 4210,
      "Ġtransaction": 4211,
      "ument": 4212,
      "-$": 4213,
      "ĠAny": 4214,
      "SY": 4215,
      "ĠGO": 4216,
      "Ġbook": 4217,
      "shopping": 4218,
      "ISH": 4219,
      "roy": 4220,
      "Ġhappened": 4221,
      "AW": 4222,
      "Alert": 4223,
      "ĠNetwork": 4224,
      "Ġtrack": 4225,
      "Ġservices": 4226,
      "oice": 4227,
      "Magazine": 4228,
      "ĠSur": 4229,
      "Åĵ": 4230,
      "shibainu": 4231,
      "Ġpopular": 4232,
      "ðŁĽĳ": 4233,
      "ĠMO": 4234,
      "ĠSHORTED": 4235,
      "ĠWH": 4236,
      "Ġfa": 4237,
      "action": 4238,
      "acks": 4239,
      "150": 4240,
      "çĭ": 4241,
      "Ġproduction": 4242,
      "Tra": 4243,
      "tesla": 4244,
      "Mr": 4245,
      "Ġdet": 4246,
      "Ġbears": 4247,
      "Ġhealth": 4248,
      "berg": 4249,
      "Ġreached": 4250,
      "FG": 4251,
      "Ġresp": 4252,
      "Ġmoves": 4253,
      "Ġbenefit": 4254,
      "ived": 4255,
      "____": 4256,
      "Ġwonderful": 4257,
      "UGE": 4258,
      "Ġhaven": 4259,
      "hest": 4260,
      "UG": 4261,
      "Ġtou": 4262,
      "BL": 4263,
      "TheMoonCarl": 4264,
      "olf": 4265,
      "ä¸": 4266,
      "ĠPri": 4267,
      "googl": 4268,
      "ĠBreak": 4269,
      "May": 4270,
      "acci": 4271,
      "eck": 4272,
      "ĠStocks": 4273,
      "ĠTX": 4274,
      "pandagirl": 4275,
      "cher": 4276,
      "Cycl": 4277,
      "âĿ¤": 4278,
      "ĠVal": 4279,
      "Ġview": 4280,
      "COIN": 4281,
      "aves": 4282,
      "Ape": 4283,
      "Saitama": 4284,
      "ICO": 4285,
      "stream": 4286,
      "Ġself": 4287,
      "Did": 4288,
      "Ġchain": 4289,
      "Ġstaking": 4290,
      "ĠSol": 4291,
      "Ġstep": 4292,
      "Ø§": 4293,
      "ĠCo": 4294,
      "ĠâĤ¬": 4295,
      "Ġmultip": 4296,
      "ilar": 4297,
      "gor": 4298,
      "Ġprocess": 4299,
      "engine": 4300,
      "ROKU": 4301,
      "ibonacci": 4302,
      "SQ": 4303,
      "ring": 4304,
      "Ġstrategy": 4305,
      "ĠðŁ¤£": 4306,
      "gen": 4307,
      "ĠBlue": 4308,
      "Ġscal": 4309,
      "Des": 4310,
      "PER": 4311,
      "ĠðŁĻı": 4312,
      "Ġmid": 4313,
      "gu": 4314,
      "Ġhands": 4315,
      "Ġconfirm": 4316,
      "Ever": 4317,
      "KET": 4318,
      "options": 4319,
      "ĠDeFi": 4320,
      "uel": 4321,
      "shop": 4322,
      "this": 4323,
      "Ġ42": 4324,
      "Ġlucky": 4325,
      "Ġtrending": 4326,
      "GR": 4327,
      "Huobi": 4328,
      "king": 4329,
      "ted": 4330,
      "ĠEl": 4331,
      "PH": 4332,
      "Ġcoup": 4333,
      "SO": 4334,
      "season": 4335,
      "Ġfixes": 4336,
      "SHIBARMY": 4337,
      "Ġsense": 4338,
      "ecause": 4339,
      "Any": 4340,
      "uto": 4341,
      "Ġminers": 4342,
      "onomy": 4343,
      "analysis": 4344,
      "safemoon": 4345,
      "dot": 4346,
      "REAKING": 4347,
      "Ġexist": 4348,
      "Satoshi": 4349,
      "PT": 4350,
      "ĠBalance": 4351,
      "Ġfight": 4352,
      "Ax": 4353,
      "Dog": 4354,
      "JN": 4355,
      "Ġ35": 4356,
      "fic": 4357,
      "ĠMoney": 4358,
      "Ġplans": 4359,
      "Ġdoubt": 4360,
      "ti": 4361,
      "ðŁĺİ": 4362,
      "BE": 4363,
      "rr": 4364,
      "comes": 4365,
      "ĠÂ£": 4366,
      "irc": 4367,
      "ulse": 4368,
      "GameFi": 4369,
      "ĠLONGED": 4370,
      "ĠðŁĴ¯": 4371,
      "Ġeffect": 4372,
      "Ġextreme": 4373,
      "oundation": 4374,
      "Ġflow": 4375,
      "Ġâ¬ĩ": 4376,
      "Ġannounced": 4377,
      "Ġkill": 4378,
      "mt": 4379,
      "ĠðŁ¤ĳ": 4380,
      "affiliatemarketing": 4381,
      "Md": 4382,
      "Forex": 4383,
      "Ġactive": 4384,
      "inex": 4385,
      "Ġinnovative": 4386,
      "ship": 4387,
      "ĠĠĠĠĠĠĠĊ": 4388,
      "iron": 4389,
      "Ġhits": 4390,
      "mr": 4391,
      "Ġindic": 4392,
      "Ġ46": 4393,
      "FLOKI": 4394,
      "flow": 4395,
      "ĠðŁĴ¥": 4396,
      "ITH": 4397,
      "ior": 4398,
      "Ġnumbers": 4399,
      "ĠSalvador": 4400,
      "vey": 4401,
      "earning": 4402,
      "ately": 4403,
      "Ġtx": 4404,
      "ETA": 4405,
      "ĠAdd": 4406,
      "Or": 4407,
      "ART": 4408,
      "Ġhed": 4409,
      "ongratulations": 4410,
      "DAY": 4411,
      "Alt": 4412,
      "FTM": 4413,
      "argets": 4414,
      "anned": 4415,
      "Ġrelease": 4416,
      "Ġsto": 4417,
      "MD": 4418,
      "Ġ65": 4419,
      "Ġdont": 4420,
      "Ġpredictions": 4421,
      "Decentral": 4422,
      "ĠSIG": 4423,
      "box": 4424,
      "mes": 4425,
      "rop": 4426,
      "perform": 4427,
      "Ġonline": 4428,
      "ball": 4429,
      "BitcoinMagazine": 4430,
      "acro": 4431,
      "Ġgives": 4432,
      "TD": 4433,
      "Ġgas": 4434,
      "Ġregul": 4435,
      "Bluesparrow": 4436,
      "Ġdead": 4437,
      "iano": 4438,
      "Ġaffect": 4439,
      "iswap": 4440,
      "ãĤ": 4441,
      "ii": 4442,
      "wallet": 4443,
      "ĠEV": 4444,
      "apan": 4445,
      "tellar": 4446,
      "Ġsecure": 4447,
      "follow": 4448,
      "Ã¯": 4449,
      "ethe": 4450,
      "ams": 4451,
      "OLD": 4452,
      "Ġ47": 4453,
      "Ġincluding": 4454,
      "Ġbigger": 4455,
      "Investment": 4456,
      "Ġ300": 4457,
      "Ġhuman": 4458,
      "Ġattention": 4459,
      "Ġsaw": 4460,
      "ecko": 4461,
      "ĠEX": 4462,
      "ĠIm": 4463,
      "Launch": 4464,
      "lier": 4465,
      "Ġpromising": 4466,
      "kad": 4467,
      "Ġfear": 4468,
      "Ġaltcoin": 4469,
      "Ġrequ": 4470,
      "isit": 4471,
      "Ġfla": 4472,
      "Ġbonus": 4473,
      "ĠRSI": 4474,
      "nes": 4475,
      "oring": 4476,
      "but": 4477,
      "uf": 4478,
      "ĠChart": 4479,
      "Ġrec": 4480,
      "ĠSELL": 4481,
      "ibles": 4482,
      "ĠList": 4483,
      "ĠVol": 4484,
      "queeze": 4485,
      "CryptocurrencyNews": 4486,
      "UNI": 4487,
      "ĠCOM": 4488,
      "aker": 4489,
      "oil": 4490,
      "Ġstable": 4491,
      "love": 4492,
      "Ġparticipate": 4493,
      "Ġnegative": 4494,
      "Ġbreaking": 4495,
      "ĠReg": 4496,
      "telegraph": 4497,
      "Ġconsensus": 4498,
      "ĠPeople": 4499,
      "ager": 4500,
      "SeasonalTokens": 4501,
      "RC": 4502,
      "Ġeconomy": 4503,
      "ĠWho": 4504,
      ".....": 4505,
      "Ġeff": 4506,
      "\".": 4507,
      "ĠUs": 4508,
      "Ġsir": 4509,
      "ESS": 4510,
      "Ġ80": 4511,
      "ux": 4512,
      "Ġface": 4513,
      "irmed": 4514,
      "Wall": 4515,
      "msft": 4516,
      "Ether": 4517,
      "ĠSupport": 4518,
      "inese": 4519,
      "idel": 4520,
      "ĠReport": 4521,
      "CC": 4522,
      "Ġpurchase": 4523,
      "Ġprovide": 4524,
      "Bollinger": 4525,
      "ete": 4526,
      "Ġpool": 4527,
      "Ġprogram": 4528,
      "rodu": 4529,
      "Ġ70": 4530,
      "Ġ2016": 4531,
      "eah": 4532,
      "ĠPosition": 4533,
      "Ġbreaks": 4534,
      "Ġkn": 4535,
      "NEW": 4536,
      "Gaming": 4537,
      "Hold": 4538,
      "Ġâ¬Ĩ": 4539,
      "łï¸ı": 4540,
      "ae": 4541,
      "ĠFREE": 4542,
      "ini": 4543,
      "last": 4544,
      "Ġtill": 4545,
      "Ġsound": 4546,
      "itical": 4547,
      "mc": 4548,
      "etary": 4549,
      "iterally": 4550,
      ".@": 4551,
      "SEC": 4552,
      "inhood": 4553,
      "Ġcent": 4554,
      "AYS": 4555,
      "ged": 4556,
      "ificant": 4557,
      "SHI": 4558,
      "Ġlog": 4559,
      "Ġenter": 4560,
      "arth": 4561,
      "ashed": 4562,
      "SNAP": 4563,
      "ww": 4564,
      "Ġreject": 4565,
      "onest": 4566,
      "Ġhack": 4567,
      "Ġshitcoin": 4568,
      "ĠRetweet": 4569,
      "ĠIndex": 4570,
      "free": 4571,
      "Ġalong": 4572,
      "Resistance": 4573,
      "des": 4574,
      "Nft": 4575,
      "ĠPRO": 4576,
      "Ġholds": 4577,
      "orry": 4578,
      "ĠMan": 4579,
      "Ġfil": 4580,
      "ðŁª": 4581,
      "Ġeyes": 4582,
      "Before": 4583,
      "PC": 4584,
      "onds": 4585,
      "forext": 4586,
      "ĠPre": 4587,
      "ĠFTX": 4588,
      "Ġheld": 4589,
      "raders": 4590,
      "IX": 4591,
      "Ġsat": 4592,
      "NFTcollect": 4593,
      "Ġquite": 4594,
      "Ġitself": 4595,
      "Ġappreci": 4596,
      "ĠAlso": 4597,
      "Floki": 4598,
      "ĠHours": 4599,
      "ĠAugust": 4600,
      "ĠLiquid": 4601,
      "bar": 4602,
      "VR": 4603,
      "anking": 4604,
      "Ġprotect": 4605,
      "Ġstream": 4606,
      "Ġroll": 4607,
      "Å¡": 4608,
      "repren": 4609,
      "investor": 4610,
      "Cont": 4611,
      "hr": 4612,
      "Dollar": 4613,
      "ĠSome": 4614,
      "odes": 4615,
      "ðŁı½": 4616,
      "999": 4617,
      "Symbol": 4618,
      "Like": 4619,
      "ĠDollar": 4620,
      "ĠCO": 4621,
      "Games": 4622,
      "Ġstud": 4623,
      "DG": 4624,
      "Ġtechnical": 4625,
      "sy": 4626,
      "Ġvers": 4627,
      "ĠRipple": 4628,
      "WAP": 4629,
      "ided": 4630,
      "ĠFeb": 4631,
      "rats": 4632,
      "Ġmargin": 4633,
      "OWN": 4634,
      "Ġshowing": 4635,
      "Ġpullback": 4636,
      "ĠSign": 4637,
      "Ġprojector": 4638,
      "ĠĠĠĠĠĠĠĠĠĠĠ": 4639,
      "Ġâĸ": 4640,
      "Ġconsolid": 4641,
      "gifts": 4642,
      "Ġfollowers": 4643,
      "Ġunique": 4644,
      "ĠInterest": 4645,
      "pancakeswap": 4646,
      "ola": 4647,
      "Ġlock": 4648,
      "tober": 4649,
      "II": 4650,
      "ĠRES": 4651,
      "leep": 4652,
      "anda": 4653,
      "Schiff": 4654,
      "GEM": 4655,
      "Space": 4656,
      "ett": 4657,
      "ĠShare": 4658,
      "CRO": 4659,
      "Ġ2023": 4660,
      "cip": 4661,
      "Ġrecommend": 4662,
      "Ġcame": 4663,
      "ubble": 4664,
      "ĠSatoshi": 4665,
      "Ġspread": 4666,
      "ĠMost": 4667,
      "ripto": 4668,
      "sell": 4669,
      "Weekly": 4670,
      "Ġcard": 4671,
      "AG": 4672,
      "obs": 4673,
      "ĠWILL": 4674,
      "VG": 4675,
      "ðŁĩµ": 4676,
      "Ġinstant": 4677,
      "Ġ!!!": 4678,
      "ĠDM": 4679,
      "Ġprin": 4680,
      "cramer": 4681,
      "ĠWhich": 4682,
      "ĠBTCUSDT": 4683,
      "Ġheard": 4684,
      "ĠFund": 4685,
      "Ġcouple": 4686,
      "ĠPh": 4687,
      "fd": 4688,
      "Â¸Âı": 4689,
      "Gate": 4690,
      "Ġrevolution": 4691,
      "odcast": 4692,
      "Ġcertain": 4693,
      "itional": 4694,
      "fric": 4695,
      "Only": 4696,
      "âĥ£": 4697,
      "Ġproducts": 4698,
      "EUR": 4699,
      "era": 4700,
      "arr": 4701,
      "orks": 4702,
      "ĠPRICE": 4703,
      "Ġflo": 4704,
      "Ġindex": 4705,
      "Ġcredit": 4706,
      "creo": 4707,
      "Red": 4708,
      "fc": 4709,
      "DY": 4710,
      "ĠPost": 4711,
      "Detail": 4712,
      "Ġcut": 4713,
      "fo": 4714,
      "PO": 4715,
      "Ġstarts": 4716,
      "ĠFree": 4717,
      "INJ": 4718,
      "mall": 4719,
      "with": 4720,
      "Arch": 4721,
      "Ġ75": 4722,
      "Ġ44": 4723,
      "UNT": 4724,
      "ĠAnn": 4725,
      "ME": 4726,
      "Ġrock": 4727,
      "urrencies": 4728,
      "imal": 4729,
      "ideas": 4730,
      "ĠSays": 4731,
      "urning": 4732,
      "ðŁĺĤðŁĺĤ": 4733,
      "äº": 4734,
      "ATH": 4735,
      "digitalart": 4736,
      "owatch": 4737,
      "aus": 4738,
      "Ġfavorite": 4739,
      "Cryp": 4740,
      "ĠStart": 4741,
      "uru": 4742,
      "resale": 4743,
      "âı": 4744,
      "ikes": 4745,
      "Ġcoinbase": 4746,
      "Ġjump": 4747,
      "hic": 4748,
      "Ġcorrection": 4749,
      "iger": 4750,
      "Fund": 4751,
      "NN": 4752,
      "mos": 4753,
      "420": 4754,
      "à¤¨": 4755,
      "Ġimpro": 4756,
      "Happy": 4757,
      "Ġdetails": 4758,
      "Ġdef": 4759,
      "gate": 4760,
      "à¤Ł": 4761,
      "facebook": 4762,
      "Ġpie": 4763,
      "spir": 4764,
      "Ġfake": 4765,
      "ya": 4766,
      "uesday": 4767,
      "Br": 4768,
      "KO": 4769,
      "Ġoption": 4770,
      "bling": 4771,
      "jimcramer": 4772,
      "michael": 4773,
      "Ġtesting": 4774,
      "ĠNaks": 4775,
      "ASH": 4776,
      "ems": 4777,
      "ompl": 4778,
      "daytrading": 4779,
      "ursday": 4780,
      "Ġrising": 4781,
      "aged": 4782,
      "rich": 4783,
      "aste": 4784,
      "ompliano": 4785,
      "Ġmonthly": 4786,
      "ðĿĻ": 4787,
      "PeterSchiff": 4788,
      "King": 4789,
      "Ġpositions": 4790,
      "Ġintegr": 4791,
      "ĠFibonacci": 4792,
      "NFTdrop": 4793,
      "Ġinvestor": 4794,
      "Ġpresent": 4795,
      "âĤ¿)": 4796,
      "ulating": 4797,
      "WHALE": 4798,
      "Ġdecl": 4799,
      "Ġfr": 4800,
      "oughts": 4801,
      "Ġtransp": 4802,
      "ĠTrans": 4803,
      "Ġremind": 4804,
      "Ġtrill": 4805,
      "ĠTake": 4806,
      "Ġdevelopers": 4807,
      "ĠðŁĺį": 4808,
      "eral": 4809,
      "ollection": 4810,
      "ĠTHIS": 4811,
      "/âĤ¿)": 4812,
      "ĠInst": 4813,
      "AMC": 4814,
      "120": 4815,
      "arge": 4816,
      "Ġexplain": 4817,
      "âĶ": 4818,
      "Google": 4819,
      "¼ï¸ı": 4820,
      "Ġsimilar": 4821,
      "Ġbroken": 4822,
      "Ġcorrect": 4823,
      "Guy": 4824,
      "TV": 4825,
      "xy": 4826,
      "Ġrather": 4827,
      "Ġtransfered": 4828,
      "tember": 4829,
      "stockstowatch": 4830,
      "Rise": 4831,
      "ticip": 4832,
      "USDC": 4833,
      "ACK": 4834,
      "List": 4835,
      "ĠSc": 4836,
      "ĠLink": 4837,
      "via": 4838,
      "HEX": 4839,
      "Ġep": 4840,
      "Ġmer": 4841,
      "AA": 4842,
      "Â¥": 4843,
      "Ġdeposit": 4844,
      "Ġcover": 4845,
      "Cake": 4846,
      "atur": 4847,
      "à¤¾": 4848,
      "isp": 4849,
      "ÂłĠ": 4850,
      "WS": 4851,
      "Ġeduc": 4852,
      "à¤°": 4853,
      "anna": 4854,
      "Ġtrig": 4855,
      "Ġinternet": 4856,
      "Ġgoals": 4857,
      "DM": 4858,
      "Ġaccounts": 4859,
      "Ġur": 4860,
      "Ġdate": 4861,
      "Ġglad": 4862,
      "IDO": 4863,
      "Co": 4864,
      "ĠðŁĶ¥ðŁĶ¥ðŁĶ¥": 4865,
      "Ġdream": 4866,
      "Ġlegal": 4867,
      "akam": 4868,
      "ĠðŁĴİðŁĻĮ": 4869,
      "mar": 4870,
      "ayer": 4871,
      "card": 4872,
      "instagram": 4873,
      "à¤¿": 4874,
      "Ġmark": 4875,
      "Covid": 4876,
      "ĊĊĠ": 4877,
      "LUFF": 4878,
      "md": 4879,
      "life": 4880,
      "à¥į": 4881,
      "CV": 4882,
      "Ġbeautiful": 4883,
      "Ġ;": 4884,
      "Mart": 4885,
      "BlueSparrowETH": 4886,
      "RY": 4887,
      "ians": 4888,
      "asy": 4889,
      "Ġprofitable": 4890,
      "Another": 4891,
      "kucoin": 4892,
      ",#": 4893,
      "Ġinit": 4894,
      "Ġexplo": 4895,
      "???": 4896,
      "ols": 4897,
      "Ġmanip": 4898,
      "Ġacqu": 4899,
      "ups": 4900,
      "Ġ41": 4901,
      "CB": 4902,
      "Ġdest": 4903,
      "ĠThen": 4904,
      "orse": 4905,
      "chainlink": 4906,
      "pply": 4907,
      "fury": 4908,
      "ĠOther": 4909,
      "Ġsolid": 4910,
      "ĠWall": 4911,
      "DJIA": 4912,
      "TCH": 4913,
      "Ġconsum": 4914,
      "ule": 4915,
      "Ġtonight": 4916,
      "Ġfaith": 4917,
      "121": 4918,
      "ctober": 4919,
      "ried": 4920,
      "ĠDigital": 4921,
      "Ġbitcoiner": 4922,
      ",,": 4923,
      "Ste": 4924,
      "UMP": 4925,
      "ftware": 4926,
      "kadot": 4927,
      "bluesparrow": 4928,
      "socialmedia": 4929,
      "Ġsentiment": 4930,
      "Ġupg": 4931,
      "Ġseason": 4932,
      "Ġban": 4933,
      "Ġimpact": 4934,
      "olks": 4935,
      "Ġthread": 4936,
      "Ġsav": 4937,
      "TOKEN": 4938,
      "RB": 4939,
      "ĠĠĠĠĠĠĠĠĠĠ": 4940,
      "£ï¸ı": 4941,
      "Rich": 4942,
      "Ġfundament": 4943,
      "roll": 4944,
      "win": 4945,
      "Ġheav": 4946,
      "ToTheMoon": 4947,
      "pha": 4948,
      "ĠNEWS": 4949,
      "CMC": 4950,
      "âĸĵâĸĵâĸĵâĸĵ": 4951,
      "Ġtick": 4952,
      "Trump": 4953,
      "XBT": 4954,
      "Ġign": 4955,
      "XOM": 4956,
      "Ġpain": 4957,
      "Ġheight": 4958,
      "rage": 4959,
      "Ġ52": 4960,
      "RI": 4961,
      "CryptoCurrency": 4962,
      "ĠUse": 4963,
      "BREAKING": 4964,
      "omen": 4965,
      "oth": 4966,
      "Ġenv": 4967,
      "cat": 4968,
      "130": 4969,
      "Ġcannot": 4970,
      "Ġord": 4971,
      "Ġprotocol": 4972,
      "finex": 4973,
      "Ġfalling": 4974,
      "Ġdebt": 4975,
      "cont": 4976,
      "ĠTelegram": 4977,
      "XMR": 4978,
      "fort": 4979,
      "Ġproper": 4980,
      "fund": 4981,
      "Ġlisting": 4982,
      "Pri": 4983,
      "david": 4984,
      "Ġcomment": 4985,
      "oost": 4986,
      "Ġwouldn": 4987,
      "Ġthree": 4988,
      "ATE": 4989,
      "Ġbeginning": 4990,
      "People": 4991,
      "Ġalts": 4992,
      "Stellar": 4993,
      "ĠHUGE": 4994,
      "INU": 4995,
      "Ġbeat": 4996,
      "hus": 4997,
      "ĠYes": 4998,
      "angle": 4999,
      "BitcoinCrash": 5000,
      "ĠWin": 5001,
      "Well": 5002,
      "ĠðŁĺī": 5003,
      "PG": 5004,
      "Ġseconds": 5005,
      "bear": 5006,
      "MI": 5007,
      "ï¿¼": 5008,
      "Ġspend": 5009,
      "Ġthoughts": 5010,
      "Ġattractions": 5011,
      "smart": 5012,
      "SHOP": 5013,
      "Ġexactly": 5014,
      "GLD": 5015,
      "NEAR": 5016,
      "Hodl": 5017,
      "pol": 5018,
      "redible": 5019,
      "ĠChainlink": 5020,
      "Ġfire": 5021,
      "Ġregard": 5022,
      "Ġ33": 5023,
      "NX": 5024,
      "ĠGroup": 5025,
      "ills": 5026,
      "Ġsolution": 5027,
      "litecoin": 5028,
      "pecially": 5029,
      "Ġanswer": 5030,
      "izing": 5031,
      "Ġconc": 5032,
      "ĠFUD": 5033,
      "equ": 5034,
      "ustain": 5035,
      "Ġsuggests": 5036,
      "use": 5037,
      "ridge": 5038,
      "vo": 5039,
      "rick": 5040,
      "ðŁĶ»ðŁĶ»ðŁĶ»": 5041,
      "avirus": 5042,
      "Ġyes": 5043,
      "anche": 5044,
      "ĠCompared": 5045,
      "ho": 5046,
      "Ġpossib": 5047,
      "Ac": 5048,
      "BIDU": 5049,
      "AB": 5050,
      "ðŁĵħ": 5051,
      "Ġhot": 5052,
      "Ġscen": 5053,
      "Ġinvested": 5054,
      "upper": 5055,
      "IBM": 5056,
      "âĢ¯âĢ¯âĢ¯âĢ¯": 5057,
      "ednes": 5058,
      "ovember": 5059,
      "Ġdr": 5060,
      "akamoto": 5061,
      "ednesday": 5062,
      "ĠAct": 5063,
      "Ķï¸ı": 5064,
      "ample": 5065,
      "Ġ43": 5066,
      "Ġland": 5067,
      "TX": 5068,
      "High": 5069,
      "ĠAg": 5070,
      "180": 5071,
      "org": 5072,
      "uary": 5073,
      "Ġamong": 5074,
      "Ġones": 5075,
      "Ġhop": 5076,
      "repreneur": 5077,
      "Ġlisten": 5078,
      "From": 5079,
      "Ġver": 5080,
      "ĠDel": 5081,
      "Ġleading": 5082,
      "ĠBIG": 5083,
      "ĠHas": 5084,
      "upid": 5085,
      "ector": 5086,
      "ripple": 5087,
      "selves": 5088,
      "Ġmultiple": 5089,
      "Ġwhe": 5090,
      "Ġpumping": 5091,
      "ender": 5092,
      "Classic": 5093,
      "Have": 5094,
      "Ġretweet": 5095,
      "night": 5096,
      "ĠCoinbase": 5097,
      "GA": 5098,
      "icks": 5099,
      "APompliano": 5100,
      "Ġcatch": 5101,
      "staking": 5102,
      "Ġdam": 5103,
      "Ġrecently": 5104,
      "Ġgiveaway": 5105,
      "ðŁĩ°": 5106,
      "Ġhash": 5107,
      "bitcoins": 5108,
      "ðŁĩº": 5109,
      "Ġhedge": 5110,
      "ao": 5111,
      "HD": 5112,
      "Ġnorm": 5113,
      "Ġbalance": 5114,
      "Middle": 5115,
      "See": 5116,
      "ĠSale": 5117,
      "isk": 5118,
      "ÂłÂłÂłÂłÂłÂłÂłÂłÂłÂłÂłÂłÂłÂłÂłÂł": 5119,
      "Ġinv": 5120,
      "ðĿĹ²ðĿĹ¿": 5121,
      "cember": 5122,
      "ads": 5123,
      "nftartist": 5124,
      "Ġfig": 5125,
      "Win": 5126,
      "Ġreceive": 5127,
      "Ġ62": 5128,
      "Quant": 5129,
      "Ret": 5130,
      "Ġsupporting": 5131,
      "ĠShe": 5132,
      "lin": 5133,
      "Please": 5134,
      "Ġdeveloping": 5135,
      "ĠFacebook": 5136,
      "ĠLooking": 5137,
      "Ġfeeling": 5138,
      "Ġgone": 5139,
      "Ġ32": 5140,
      "Ġrecip": 5141,
      "Ġneeded": 5142,
      "reas": 5143,
      "Ġboy": 5144,
      "Gateio": 5145,
      "Ġwrite": 5146,
      "part": 5147,
      "BTT": 5148,
      "Ġliterally": 5149,
      "aked": 5150,
      "Ġchanged": 5151,
      "etherium": 5152,
      "hot": 5153,
      "loom": 5154,
      "âŃĲ": 5155,
      "ĠNov": 5156,
      "ðŁĴİðŁĴİ": 5157,
      "LOW": 5158,
      "asino": 5159,
      "betfury": 5160,
      "Ġsk": 5161,
      "ensive": 5162,
      "icy": 5163,
      "Ġ....": 5164,
      "gok": 5165,
      "accine": 5166,
      "Bear": 5167,
      "ĠDO": 5168,
      "ĠLoss": 5169,
      "gam": 5170,
      "Ġsignificant": 5171,
      "nergy": 5172,
      "ĠSw": 5173,
      "Ġwave": 5174,
      "ĠEarn": 5175,
      "Ġ37": 5176,
      "ront": 5177,
      "Ġdeliver": 5178,
      "Ġredu": 5179,
      "Ġachieve": 5180,
      "Ġaff": 5181,
      "Ġfan": 5182,
      "rillion": 5183,
      "SELL": 5184,
      "Ġtrillion": 5185,
      "iq": 5186,
      "ĠFear": 5187,
      "look": 5188,
      "Ġcustomers": 5189,
      "ipping": 5190,
      "Ġfly": 5191,
      "ÙĦ": 5192,
      "Ġsaf": 5193,
      "Ġimplement": 5194,
      "Ġperiod": 5195,
      "Ġkeeps": 5196,
      "Ġbecomes": 5197,
      "Ġconst": 5198,
      "ires": 5199,
      "Ġappl": 5200,
      "CEL": 5201,
      "ĠSO": 5202,
      "witch": 5203,
      "Ġspecial": 5204,
      "Ukraine": 5205,
      "Ġdips": 5206,
      "Ġtraded": 5207,
      "tes": 5208,
      "rover": 5209,
      "Ġtaken": 5210,
      "Ġment": 5211,
      "Ġmovement": 5212,
      "Ġ09": 5213,
      "Ġcollection": 5214,
      "Ġcal": 5215,
      "kyo": 5216,
      "Ġcountries": 5217,
      "ĠBLOCK": 5218,
      "Ġlongs": 5219,
      "erra": 5220,
      "Ġhighly": 5221,
      "ividend": 5222,
      "DP": 5223,
      "tem": 5224,
      "Ġjour": 5225,
      "ĠBEAR": 5226,
      "Ġissues": 5227,
      "Ġid": 5228,
      "ĠĠĠĠĠĠĠĊĠĠĠĠĠĠĠĠĠ": 5229,
      "NS": 5230,
      "Ġbc": 5231,
      "Ġ34": 5232,
      "ironment": 5233,
      "xx": 5234,
      "ustral": 5235,
      "Ġcontent": 5236,
      "Ġexciting": 5237,
      "Ġdominance": 5238,
      "EAS": 5239,
      "ws": 5240,
      "ristmas": 5241,
      "USA": 5242,
      "anger": 5243,
      "cott": 5244,
      "yond": 5245,
      "Ġok": 5246,
      "Archive": 5247,
      "Ġstake": 5248,
      "Mc": 5249,
      "John": 5250,
      "Ġquestions": 5251,
      "OpenSeaNFT": 5252,
      "LC": 5253,
      "ĠĊĊĊ": 5254,
      "Ġreports": 5255,
      "ĠSte": 5256,
      "ko": 5257,
      "Ġrecipients": 5258,
      "ðŁ¤Ŀ": 5259,
      "Ġcontracts": 5260,
      "rock": 5261,
      "First": 5262,
      "Ġfully": 5263,
      "ĠSeptember": 5264,
      "erv": 5265,
      "street": 5266,
      "Ġ08": 5267,
      "Ġcause": 5268,
      "ĠStreet": 5269,
      "Ġlosing": 5270,
      "BitcoinCash": 5271,
      "max": 5272,
      "IND": 5273,
      "Ġrules": 5274,
      "how": 5275,
      "Ġfell": 5276,
      "ĠMARKET": 5277,
      "ĠAss": 5278,
      "Ġethereum": 5279,
      "ribe": 5280,
      "Ġattack": 5281,
      "cryptos": 5282,
      "ĊĠĠĠĠ": 5283,
      "ongest": 5284,
      "uz": 5285,
      "ĠTech": 5286,
      "ĠMaybe": 5287,
      "nextblock": 5288,
      "raight": 5289,
      "ongrats": 5290,
      "Ġreleased": 5291,
      "tictok": 5292,
      "tictoknextblock": 5293,
      "Ġremain": 5294,
      "justins": 5295,
      "ĠTrader": 5296,
      "Ġpaying": 5297,
      "Ģï¸ı": 5298,
      "ĠMarkets": 5299,
      "rike": 5300,
      "ĠWell": 5301,
      "Full": 5302,
      "ÂŁ": 5303,
      "ructure": 5304,
      "ĠMetaverse": 5305,
      "utional": 5306,
      "Ġneutral": 5307,
      "Ġrates": 5308,
      "Ġbio": 5309,
      "ites": 5310,
      "Ask": 5311,
      "Ġextremely": 5312,
      "ĠWeekly": 5313,
      "Ġlaunched": 5314,
      "Ġclass": 5315,
      "Ġobvious": 5316,
      "Man": 5317,
      "ĠðŁĩºðŁĩ¸)": 5318,
      "PERP": 5319,
      "Ġsimply": 5320,
      "lose": 5321,
      "Ġhighest": 5322,
      "Luna": 5323,
      "do": 5324,
      "Ġbuyers": 5325,
      "alks": 5326,
      "Ġwallets": 5327,
      "Ġjoined": 5328,
      "Ġupdated": 5329,
      "Ġraise": 5330,
      "Ġfeed": 5331,
      "ĠBel": 5332,
      "SHINJ": 5333,
      "Ġroom": 5334,
      "clus": 5335,
      "ration": 5336,
      "Ab": 5337,
      "Ġexec": 5338,
      "aging": 5339,
      "TER": 5340,
      "Black": 5341,
      "Street": 5342,
      "Ġholdings": 5343,
      "REN": 5344,
      "Ġsubsc": 5345,
      "Ġ07": 5346,
      "rig": 5347,
      "ĠCons": 5348,
      "ĠDE": 5349,
      "Ġpaper": 5350,
      "osi": 5351,
      "ĠLearn": 5352,
      "Ġsuperb": 5353,
      "Ġboun": 5354,
      "pa": 5355,
      "CI": 5356,
      "aught": 5357,
      "ðŁĲ³ðŁĲ³": 5358,
      "ĠFlow": 5359,
      "ĠMake": 5360,
      "Ġwel": 5361,
      "Feg": 5362,
      "APE": 5363,
      "ALTS": 5364,
      "ATOM": 5365,
      "ĠALERT": 5366,
      "Ġphone": 5367,
      "based": 5368,
      "ĠFinancial": 5369,
      "ledge": 5370,
      "amily": 5371,
      "olo": 5372,
      "Ġparty": 5373,
      "ea": 5374,
      "ĠSto": 5375,
      "Ġforever": 5376,
      "ĠFe": 5377,
      "****": 5378,
      "CS": 5379,
      "Ġbright": 5380,
      "Ġgen": 5381,
      "Love": 5382,
      "WA": 5383,
      "ĠBro": 5384,
      "mit": 5385,
      "akers": 5386,
      "bounty": 5387,
      "âŀ¡ï¸ı": 5388,
      "cd": 5389,
      "andom": 5390,
      "Ġexperien": 5391,
      "Max": 5392,
      "Ġ%)": 5393,
      "âģ©": 5394,
      "UX": 5395,
      "ĠAS": 5396,
      "Ġopp": 5397,
      "memecoin": 5398,
      "ĠAverage": 5399,
      "Ġrealize": 5400,
      "Ġâģ": 5401,
      "wall": 5402,
      "ĠLaunch": 5403,
      "Infinity": 5404,
      "bitcoinmining": 5405,
      "light": 5406,
      "Ġelectric": 5407,
      "inflation": 5408,
      "gence": 5409,
      "jin": 5410,
      "Ġissue": 5411,
      "Ġfinance": 5412,
      "omm": 5413,
      "Ġcompletely": 5414,
      "Lun": 5415,
      "Ġmonetary": 5416,
      "ĠSub": 5417,
      "Ġbuys": 5418,
      "Cr": 5419,
      "ĠRESUL": 5420,
      "Net": 5421,
      "Ġhell": 5422,
      "Ġmeme": 5423,
      "Ġfolks": 5424,
      "Ġanymore": 5425,
      "enc": 5426,
      "Ġsett": 5427,
      "Ġprint": 5428,
      "Ġhur": 5429,
      "ĠEurope": 5430,
      "success": 5431,
      "CP": 5432,
      "SCO": 5433,
      "ĠChinese": 5434,
      "ML": 5435,
      "ĠDid": 5436,
      "ello": 5437,
      "MAR": 5438,
      "Ġfirm": 5439,
      "JNJ": 5440,
      "ĠLook": 5441,
      "emp": 5442,
      "irtual": 5443,
      "giftideas": 5444,
      "ls": 5445,
      "meta": 5446,
      "Gu": 5447,
      "MB": 5448,
      "ĠBack": 5449,
      "rowth": 5450,
      "Ġminute": 5451,
      "nv": 5452,
      "Ġvi": 5453,
      "Ġgoal": 5454,
      "vered": 5455,
      "ĠTron": 5456,
      "IME": 5457,
      "ĠWE": 5458,
      "Ġprediction": 5459,
      "Ġhourly": 5460,
      "Par": 5461,
      "Ġorders": 5462,
      "ECOIN": 5463,
      "PFE": 5464,
      "æĿ": 5465,
      "what": 5466,
      "ĠTRAD": 5467,
      "RX": 5468,
      "ĠEMA": 5469,
      "ä½": 5470,
      "uri": 5471,
      "nifty": 5472,
      "ows": 5473,
      "Ġpowerful": 5474,
      "ĠNO": 5475,
      "FO": 5476,
      "Ġseem": 5477,
      "ĠRed": 5478,
      "Ġcloud": 5479,
      "ios": 5480,
      "Ġbar": 5481,
      "123": 5482,
      "ying": 5483,
      "Ġill": 5484,
      "cb": 5485,
      "Ġdownside": 5486,
      "ðŁļ": 5487,
      "Futures": 5488,
      "income": 5489,
      "Ĺ£ï¸ı": 5490,
      "Trending": 5491,
      "Ġeye": 5492,
      "pot": 5493,
      "Ġfill": 5494,
      "ĠWITH": 5495,
      "sn": 5496,
      "Nice": 5497,
      "Everyone": 5498,
      "$$": 5499,
      "Ġfine": 5500,
      "ampa": 5501,
      "Ġcat": 5502,
      "ĠADDR": 5503,
      "XTZ": 5504,
      "KISH": 5505,
      "çĭĹ": 5506,
      "ĠFuture": 5507,
      "ĊĠĠ": 5508,
      "Ġmag": 5509,
      "achine": 5510,
      "Ġshared": 5511,
      "Ġpoor": 5512,
      "Ġfeatures": 5513,
      "ispers": 5514,
      "Ġearlier": 5515,
      "PN": 5516,
      "ĸç": 5517,
      "Ġtruly": 5518,
      "Ġvision": 5519,
      "osed": 5520,
      "elcome": 5521,
      "map": 5522,
      "ĠEPS": 5523,
      "Ġlau": 5524,
      "ĠAirdrop": 5525,
      "EU": 5526,
      "iding": 5527,
      "Trust": 5528,
      "ĠOff": 5529,
      "ĠReal": 5530,
      "ĠThese": 5531,
      "ories": 5532,
      "Ġeasily": 5533,
      "cor": 5534,
      "Ġofficial": 5535,
      "Ġwhite": 5536,
      "iy": 5537,
      "BSV": 5538,
      "Ġpict": 5539,
      "VZ": 5540,
      "bitrage": 5541,
      "Ġ99": 5542,
      "Ġboard": 5543,
      "Ġtrader": 5544,
      "ppy": 5545,
      "wise": 5546,
      "Ġeconomic": 5547,
      "Ag": 5548,
      "Ġdrops": 5549,
      "Ġhate": 5550,
      "ĠFinance": 5551,
      "ĠAmerica": 5552,
      "bert": 5553,
      "Ġride": 5554,
      "attle": 5555,
      "ķĮ": 5556,
      "ĠSmart": 5557,
      "Ġwithdraw": 5558,
      "ison": 5559,
      "Ġsleep": 5560,
      "Ġswing": 5561,
      "osiann": 5562,
      "husi": 5563,
      "Ġespecially": 5564,
      "outube": 5565,
      "ĠShould": 5566,
      "âļ¡ï¸ı": 5567,
      "Sec": 5568,
      "ä½ĵ": 5569,
      "uh": 5570,
      "ivery": 5571,
      "ĠWeek": 5572,
      "Ġdiscount": 5573,
      "Ġdraw": 5574,
      "---": 5575,
      "Ġopportunities": 5576,
      "Axie": 5577,
      "crypt": 5578,
      "OCK": 5579,
      "ges": 5580,
      "èĤ": 5581,
      "Ġcomments": 5582,
      "resh": 5583,
      "Ġstupid": 5584,
      "istic": 5585,
      "iba": 5586,
      "ĠTeam": 5587,
      "Ġanticip": 5588,
      "ðŁĴķ": 5589,
      "alyt": 5590,
      "ĠWar": 5591,
      "Per": 5592,
      "Ġwinners": 5593,
      "Ġblow": 5594,
      "Ġple": 5595,
      "Whispers": 5596,
      "èĤ²": 5597,
      "ä¸ĸç": 5598,
      "ä½ĵèĤ²": 5599,
      "ä¸ĸçķĮ": 5600,
      "otion": 5601,
      "æĿ¯": 5602,
      "Year": 5603,
      "eWhispers": 5604,
      "allen": 5605,
      "Pal": 5606,
      "ding": 5607,
      "Ġquickly": 5608,
      "SHINJA": 5609,
      "ä¸ĸçķĮæĿ¯": 5610,
      "LUNC": 5611,
      "Ġ49": 5612,
      "shill": 5613,
      "ummer": 5614,
      "Bnb": 5615,
      "Oh": 5616,
      "Ġgem": 5617,
      "ocket": 5618,
      "ĠValue": 5619,
      "Ġbase": 5620,
      "run": 5621,
      "FEGex": 5622,
      "ĠCommunity": 5623,
      "ĠHappy": 5624,
      "long": 5625,
      "ĠGlobal": 5626,
      "ÂŁÂ": 5627,
      "Ġhouse": 5628,
      "Ġdeep": 5629,
      "Ġworry": 5630,
      "Most": 5631,
      "Ġearning": 5632,
      "ami": 5633,
      "imum": 5634,
      "ĠNovember": 5635,
      "Ġrespect": 5636,
      "orea": 5637,
      "URE": 5638,
      "Bet": 5639,
      "Ġtelegram": 5640,
      "dates": 5641,
      "Ġalerts": 5642,
      "ONT": 5643,
      "BIT": 5644,
      "Ġ36": 5645,
      "ĠMicrosoft": 5646,
      "Ġtargets": 5647,
      "ðŁĳĳ": 5648,
      "Still": 5649,
      "Tom": 5650,
      "medi": 5651,
      "LI": 5652,
      "Ġautom": 5653,
      "Ġtelling": 5654,
      "cryptomarket": 5655,
      "unny": 5656,
      "Cor": 5657,
      "Start": 5658,
      "itable": 5659,
      "ĠCall": 5660,
      "Team": 5661,
      "board": 5662,
      "ĠRew": 5663,
      "gos": 5664,
      "yper": 5665,
      "Ġtruth": 5666,
      "SCAN": 5667,
      "ĠĊĠĊ": 5668,
      "PP": 5669,
      "Ġenthusi": 5670,
      "Ġwhales": 5671,
      "Ġutility": 5672,
      "IGH": 5673,
      "financial": 5674,
      "Ġinvol": 5675,
      "ĠBet": 5676,
      "LONG": 5677,
      "ended": 5678,
      "Ġpassive": 5679,
      "Noan": 5680,
      "MEX": 5681,
      "ĠStay": 5682,
      "Ġflip": 5683,
      "Ġtouch": 5684,
      "edin": 5685,
      "Ġstraight": 5686,
      "Ġvacc": 5687,
      "ĠJanuary": 5688,
      "Ġexample": 5689,
      "Ġinterview": 5690,
      "Ġclosing": 5691,
      "got": 5692,
      "Ġwords": 5693,
      "SAND": 5694,
      "CG": 5695,
      "don": 5696,
      "ĠDays": 5697,
      "works": 5698,
      "Ġdiver": 5699,
      "TheCrypto": 5700,
      "Ġimpress": 5701,
      "Ġair": 5702,
      "ðŁĩºðŁĩ¸": 5703,
      "ĠTrump": 5704,
      "Ġbaby": 5705,
      "====": 5706,
      "Che": 5707,
      "Ts": 5708,
      "Data": 5709,
      "Ġfucking": 5710,
      "Ġmass": 5711,
      "good": 5712,
      "unter": 5713,
      "ective": 5714,
      "Strategy": 5715,
      "ĠData": 5716,
      "Ġlight": 5717,
      "COUNT": 5718,
      "KISHU": 5719,
      "ĠAN": 5720,
      "QCOM": 5721,
      "ĠYOUR": 5722,
      "iles": 5723,
      "ĠOUT": 5724,
      "ĠME": 5725,
      "Keep": 5726,
      "lim": 5727,
      "rent": 5728,
      "å¼": 5729,
      "Ġâı": 5730,
      "Ġcele": 5731,
      "avax": 5732,
      "Ke": 5733,
      "Ġmyself": 5734,
      "ns": 5735,
      "ingecko": 5736,
      "ĠDecember": 5737,
      "pinterest": 5738,
      "Ġperformance": 5739,
      "Ġinflu": 5740,
      "Bot": 5741,
      "ĠARE": 5742,
      "Ġmis": 5743,
      "oint": 5744,
      "Ġstakes": 5745,
      "UNE": 5746,
      "gaming": 5747,
      "Looking": 5748,
      "CAT": 5749,
      "She": 5750,
      "Back": 5751,
      "ĠPlay": 5752,
      "Sports": 5753,
      "ulated": 5754,
      "Cryptocrash": 5755,
      "Ġapproach": 5756,
      "Ġearned": 5757,
      "ĊĊĠĠ": 5758,
      "Ġbatter": 5759,
      "ĠTV": 5760,
      "Ġnearly": 5761,
      "ĠMoving": 5762,
      "TM": 5763,
      "Ġyield": 5764,
      "Ġcurrencies": 5765,
      "Ġhor": 5766,
      "bi": 5767,
      "âľ¨": 5768,
      "Ġtransparent": 5769,
      "nobi": 5770,
      "isa": 5771,
      "big": 5772,
      "resent": 5773,
      "Ġ04": 5774,
      "Cyclical": 5775,
      "Ġfaster": 5776,
      "Ġextra": 5777,
      "Ġarticles": 5778,
      "Ġposted": 5779,
      "Ġpric": 5780,
      "ossible": 5781,
      "Ġlots": 5782,
      "Ġdiffic": 5783,
      "å¼Ģ": 5784,
      "CUR": 5785,
      "protocol": 5786,
      "rpor": 5787,
      "Ġadvant": 5788,
      "untron": 5789,
      "italik": 5790,
      "uest": 5791,
      "Ġprofile": 5792,
      "Ġdifficult": 5793,
      "XY": 5794,
      "äºĳ": 5795,
      "NEO": 5796,
      "å¼Ģäºĳ": 5797,
      "Ġpanic": 5798,
      "onzi": 5799,
      "Ser": 5800,
      "NFTGiveaways": 5801,
      "EXT": 5802,
      "ĠGu": 5803,
      "network": 5804,
      "Ġwinner": 5805,
      "ĠCorp": 5806,
      "NFTComm": 5807,
      "Ġaffected": 5808,
      "atest": 5809,
      "DT": 5810,
      "babydoge": 5811,
      "justinsuntron": 5812,
      "ĠYouTube": 5813,
      "dog": 5814,
      "Ġhelpful": 5815,
      "Ġprofessional": 5816,
      "Ġdoge": 5817,
      "ĠOctober": 5818,
      "ouble": 5819,
      "decentral": 5820,
      "Ori": 5821,
      "ĊĊĠĠĠĠ": 5822,
      "Â¤": 5823,
      "lok": 5824,
      "ðŁĩ¨": 5825,
      "GBP": 5826,
      "101": 5827,
      "Ġincreasing": 5828,
      "Ġconcern": 5829,
      "Very": 5830,
      "ources": 5831,
      "astructure": 5832,
      "Bro": 5833,
      "ĠĊĊĠĊ": 5834,
      "igi": 5835,
      "atus": 5836,
      "Ġleave": 5837,
      "resident": 5838,
      "ables": 5839,
      "Ġded": 5840,
      "Ġcalling": 5841,
      "Ġfair": 5842,
      "unday": 5843,
      "ĠNeed": 5844,
      "Ġlocal": 5845,
      "Ġoil": 5846,
      "Ġintrodu": 5847,
      "Ġproof": 5848,
      "Ġ55": 5849,
      "EA": 5850,
      "Ġfee": 5851,
      "Ġupcoming": 5852,
      "gm": 5853,
      "Thoughts": 5854,
      "ampaign": 5855,
      "Ġopt": 5856,
      "FOR": 5857,
      "atory": 5858,
      "urate": 5859,
      "ĠðŁĻĮ": 5860,
      "alts": 5861,
      "ĠGBP": 5862,
      "ĠEven": 5863,
      "ĠGame": 5864,
      "igin": 5865,
      "ĠMoon": 5866,
      "ĠCOIN": 5867,
      "thed": 5868,
      "Ġideas": 5869,
      "ucks": 5870,
      "WFC": 5871,
      "NFTProject": 5872,
      "ðŁĴ°ðŁĴ°": 5873,
      "pre": 5874,
      "ĠCome": 5875,
      "profit": 5876,
      "Ġ66": 5877,
      "future": 5878,
      "Ġsize": 5879,
      "month": 5880,
      "Business": 5881,
      "Marvin": 5882,
      "AirCoin": 5883,
      "Ġsqueeze": 5884,
      "bf": 5885,
      "ðŁĶ¥ðŁĶ¥ðŁĶ¥": 5886,
      "mark": 5887,
      "Ġmins": 5888,
      "cryptocom": 5889,
      "btcusd": 5890,
      "Ġannouncement": 5891,
      "ALGO": 5892,
      "ðŁĩª": 5893,
      "ĠEst": 5894,
      "can": 5895,
      "ĠWould": 5896,
      "Telegram": 5897,
      "yy": 5898,
      "Ġwanted": 5899,
      "ĠRESULTS": 5900,
      "Ġposting": 5901,
      "DD": 5902,
      "RS": 5903,
      "Ġrat": 5904,
      "Ġstandard": 5905,
      "Ġimo": 5906,
      "Ġpiece": 5907,
      "year": 5908,
      "Ġparticipating": 5909,
      "amb": 5910,
      "ĠMax": 5911,
      "Ġgift": 5912,
      "CyclicalInvesting": 5913,
      "Ġstru": 5914,
      "di": 5915,
      "ðŁĴ¥ðŁĴ¥": 5916,
      "atever": 5917,
      "Ġprep": 5918,
      "investors": 5919,
      "htein": 5920,
      "Ġpremium": 5921,
      "idence": 5922,
      "Ġcand": 5923,
      "valued": 5924,
      "ga": 5925,
      "hshtein": 5926,
      "ĠPat": 5927,
      "oting": 5928,
      "¶ï¸ı": 5929,
      "ĠICO": 5930,
      "sa": 5931,
      "Ġnode": 5932,
      "Ġhonest": 5933,
      "Ġcomput": 5934,
      "antastic": 5935,
      "tsy": 5936,
      "Ġstrongest": 5937,
      "Ġreverse": 5938,
      "Ġproud": 5939,
      "Ġpartnership": 5940,
      "Ok": 5941,
      "cryptotwitter": 5942,
      "floki": 5943,
      "350": 5944,
      "Med": 5945,
      "Ġblocks": 5946,
      "ĠðŁĶ¥ðŁĶ¥": 5947,
      "entrepreneur": 5948,
      "UK": 5949,
      "Ġaud": 5950,
      "Ġrelative": 5951,
      "Ġremains": 5952,
      "ĠAvg": 5953,
      "Ġâļ": 5954,
      "Ġgave": 5955,
      "âĤ¬ÂĿ": 5956,
      "JUST": 5957,
      "MX": 5958,
      "VeChain": 5959,
      "sale": 5960,
      "Ġopening": 5961,
      "Ġmed": 5962,
      "Ġdrive": 5963,
      "ership": 5964,
      "IV": 5965,
      "ĠCapital": 5966,
      "Olympic": 5967,
      "losed": 5968,
      "ðŁ¤£ðŁ¤£": 5969,
      "gokhshtein": 5970,
      "his": 5971,
      "ZM": 5972,
      "ĠStop": 5973,
      "ĠBar": 5974,
      "Robinhood": 5975,
      "project": 5976,
      "ILD": 5977,
      "veral": 5978,
      "110": 5979,
      "Remember": 5980,
      "Ġvehic": 5981,
      "po": 5982,
      "CRM": 5983,
      "ï¸ıâ¬": 5984,
      "aven": 5985,
      "rian": 5986,
      "Ġnames": 5987,
      "iling": 5988,
      "ĊĊĠĠĠĠĠĠĠĠ": 5989,
      "OC": 5990,
      "ĠCRO": 5991,
      "Fed": 5992,
      "wide": 5993,
      "HB": 5994,
      "iet": 5995,
      "Ġâģ¦": 5996,
      "Ġtun": 5997,
      "Fast": 5998,
      "Ranking": 5999,
      "Ġ2015": 6000,
      "ç«": 6001,
      "azir": 6002,
      "sats": 6003,
      "Ġsetup": 6004,
      "BAT": 6005,
      "ðŁĳı": 6006,
      "Ġreality": 6007,
      "ç«ŀ": 6008,
      "Ġchanging": 6009,
      "--------": 6010,
      "Ġvaluable": 6011,
      "allenge": 6012,
      "irth": 6013,
      "Ġoutperform": 6014,
      "Jeff": 6015,
      "Ġchoose": 6016,
      "ĠSoon": 6017,
      "âĢ¼ï¸ı": 6018,
      "lines": 6019,
      "ĠDA": 6020,
      "ĠStrong": 6021,
      "Ġdeploy": 6022,
      "ala": 6023,
      "uthor": 6024,
      "kh": 6025,
      "Ġ>": 6026,
      "linkedin": 6027,
      "Ġsoftware": 6028,
      "ĠEveryone": 6029,
      "ilities": 6030,
      "jo": 6031,
      "ido": 6032,
      "edger": 6033,
      "Ġconnect": 6034,
      "Ġbecoming": 6035,
      "ĠSales": 6036,
      "arian": 6037,
      "ĠRT": 6038,
      "Ġdirection": 6039,
      "AUD": 6040,
      "Ġarg": 6041,
      "online": 6042,
      "Ġbags": 6043,
      "ZIL": 6044,
      "Ġdespite": 6045,
      "Learn": 6046,
      "Ġlets": 6047,
      "Ġsharing": 6048,
      "elp": 6049,
      "LUFFY": 6050,
      "Ġblue": 6051,
      "ĠIndia": 6052,
      "olic": 6053,
      "qqq": 6054,
      "EverRise": 6055,
      "NG": 6056,
      "ively": 6057,
      "Ġleverage": 6058,
      "frica": 6059,
      "Ġuser": 6060,
      "IGHT": 6061,
      "119": 6062,
      "Ġwedge": 6063,
      "ublish": 6064,
      "ROP": 6065,
      "tain": 6066,
      "ĠPOS": 6067,
      "206": 6068,
      "ĠLIVE": 6069,
      "ĠSuper": 6070,
      "sur": 6071,
      "ðŁİ¯": 6072,
      "Ġexpecting": 6073,
      "elt": 6074,
      "rediction": 6075,
      "anced": 6076,
      "Ġreturns": 6077,
      "Ġenvironment": 6078,
      "DB": 6079,
      "Ġworst": 6080,
      "ena": 6081,
      "ayed": 6082,
      "Ġversion": 6083,
      "economy": 6084,
      "loomberg": 6085,
      "Pit": 6086,
      "Ġocc": 6087,
      "Ġbid": 6088,
      "Etherum": 6089,
      "ĠOct": 6090,
      "Ġshorting": 6091,
      "ĠLove": 6092,
      "Ġways": 6093,
      "iser": 6094,
      "HO": 6095,
      "iamond": 6096,
      "Ġaltcoins": 6097,
      "Ġsurv": 6098,
      "INE": 6099,
      "Ġcompetition": 6100,
      "fool": 6101,
      "Profit": 6102,
      "ATION": 6103,
      "Ġâŀ£": 6104,
      "izza": 6105,
      "axy": 6106,
      "Ġpers": 6107,
      "ĠLIST": 6108,
      "lood": 6109,
      "name": 6110,
      "dan": 6111,
      "AMP": 6112,
      "ĠSupply": 6113,
      "Ġexcept": 6114,
      "ĠTrend": 6115,
      "Ġcryptos": 6116,
      "ĠOrd": 6117,
      "bh": 6118,
      "ustralia": 6119,
      "Microsoft": 6120,
      "referral": 6121,
      "ĠEST": 6122,
      "Ġstick": 6123,
      "Ġsustain": 6124,
      "Ġrecover": 6125,
      "ĠYear": 6126,
      "Ġnft": 6127,
      "Launchpad": 6128,
      "AirdropDetective": 6129,
      "Model": 6130,
      "puter": 6131,
      "valanche": 6132,
      "ðŁĩ¦": 6133,
      "ications": 6134,
      "start": 6135,
      "wesome": 6136,
      "ĠAI": 6137,
      "arks": 6138,
      "450": 6139,
      "ĠUK": 6140,
      "tra": 6141,
      "Looks": 6142,
      "Which": 6143,
      "122": 6144,
      "Ġactivity": 6145,
      "Ġwelcome": 6146,
      "anta": 6147,
      "Ġsuc": 6148,
      "orb": 6149,
      "Ġimagine": 6150,
      "Yes": 6151,
      "Ġacce": 6152,
      "Facebook": 6153,
      "ðĿĸ": 6154,
      "bn": 6155,
      "ĠâĢ¢": 6156,
      "tempt": 6157,
      "Wow": 6158,
      "END": 6159,
      "ival": 6160,
      "ĠTuesday": 6161,
      "TN": 6162,
      "Fr": 6163,
      "00000000": 6164,
      "Ġquality": 6165,
      "FTT": 6166,
      "emic": 6167,
      "high": 6168,
      "Ġconfirmed": 6169,
      "ĠThursday": 6170,
      "Ġmanagement": 6171,
      "Us": 6172,
      "Ġvari": 6173,
      "ĠSats": 6174,
      "ected": 6175,
      "ĠThink": 6176,
      "Ġhost": 6177,
      "Ġdecre": 6178,
      "Ġinside": 6179,
      "xlm": 6180,
      "entially": 6181,
      "Ġsite": 6182,
      "ISE": 6183,
      "VN": 6184,
      "USH": 6185,
      "ðŁ¥°": 6186,
      "Ġincoming": 6187,
      "Ġsource": 6188,
      "aki": 6189,
      "will": 6190,
      "uild": 6191,
      "Da": 6192,
      "ubai": 6193,
      "ably": 6194,
      "ðŁĲĭðŁĲĭ": 6195,
      "va": 6196,
      "Reg": 6197,
      "å¸ģå": 6198,
      "EASON": 6199,
      "Ver": 6200,
      "Ġeventually": 6201,
      "oul": 6202,
      "ICP": 6203,
      "Ġbox": 6204,
      "Mer": 6205,
      "illa": 6206,
      "Draw": 6207,
      "Ġmarketing": 6208,
      "rin": 6209,
      "Ġhasn": 6210,
      "Take": 6211,
      "pto": 6212,
      "Ġoffers": 6213,
      "ĠAmazing": 6214,
      "ðŁĴļ": 6215,
      "tellig": 6216,
      "itic": 6217,
      "Ġprivacy": 6218,
      "Ġcreating": 6219,
      "Desk": 6220,
      "Ġreasons": 6221,
      "CSCO": 6222,
      "Mark": 6223,
      "ĠðŁ¤Ŀ": 6224,
      "Ġround": 6225,
      "Olympics": 6226,
      "otes": 6227,
      "Capital": 6228,
      "Ġfinal": 6229,
      "Ġseveral": 6230,
      "lun": 6231,
      "ootball": 6232,
      "ĠLA": 6233,
      "SX": 6234,
      "ĠTIME": 6235,
      "Pad": 6236,
      "Where": 6237,
      "Ġanalys": 6238,
      "Ġafford": 6239,
      "ju": 6240,
      "ðŁĳĭ": 6241,
      "aires": 6242,
      "duct": 6243,
      "AxieInfinity": 6244,
      "ĠSim": 6245,
      "Cryptocurrencies": 6246,
      "Ġtight": 6247,
      "Ġpurchases": 6248,
      "iring": 6249,
      "CryptoNoan": 6250,
      "omo": 6251,
      "davidgokhshtein": 6252,
      "bullish": 6253,
      "merce": 6254,
      "crc": 6255,
      "God": 6256,
      "Ġinspir": 6257,
      "cf": 6258,
      "Ġthemselves": 6259,
      "EREUM": 6260,
      "abor": 6261,
      "atcher": 6262,
      "Ġreview": 6263,
      "Fe": 6264,
      "Ġfailed": 6265,
      "SG": 6266,
      "Auto": 6267,
      "Ġmist": 6268,
      "Ġ61": 6269,
      "bound": 6270,
      "ĠPRE": 6271,
      "ĠMIN": 6272,
      "140": 6273,
      "Cointelegraph": 6274,
      "Ġult": 6275,
      "ĠQuarter": 6276,
      "Ġdifference": 6277,
      "pass": 6278,
      "ĠTrust": 6279,
      "JPY": 6280,
      "Ġinvent": 6281,
      "ĠPT": 6282,
      "ĠLTC": 6283,
      "CAKE": 6284,
      "deal": 6285,
      "ĠWhere": 6286,
      "Ġplanned": 6287,
      "ĠMarketplace": 6288,
      "Ġobs": 6289,
      "137": 6290,
      "Ġrepe": 6291,
      "leyfool": 6292,
      "ishes": 6293,
      "Ġbrand": 6294,
      "Ġscale": 6295,
      "Ġlimit": 6296,
      "ias": 6297,
      "Corn": 6298,
      "Dr": 6299,
      "ĠWeb": 6300,
      "irms": 6301,
      "Ġexpensive": 6302,
      "Met": 6303,
      "Ġinnovation": 6304,
      "ĠDOWN": 6305,
      "Ġorigin": 6306,
      "ĠDoes": 6307,
      "ĠSAYS": 6308,
      "125": 6309,
      "motleyfool": 6310,
      "rovercrc": 6311,
      "Tradecrypto": 6312,
      "vis": 6313,
      "Ġproblems": 6314,
      "Ġpicture": 6315,
      "Ah": 6316,
      "Ġfaithful": 6317,
      "BYND": 6318,
      "Ġmillions": 6319,
      "210": 6320,
      "Ġanalyst": 6321,
      "Guru": 6322,
      "nasdaq": 6323,
      "Hope": 6324,
      "ĠBecause": 6325,
      "ĠDes": 6326,
      "apse": 6327,
      "Ġdisco": 6328,
      "Ġinev": 6329,
      "ĠScore": 6330,
      "Ġbeyond": 6331,
      "abbit": 6332,
      "Ġsucceed": 6333,
      "lam": 6334,
      "Financial": 6335,
      "themotleyfool": 6336,
      "Ġchanges": 6337,
      "Ġasking": 6338,
      "dex": 6339,
      "zil": 6340,
      "ĠCROSS": 6341,
      "reatest": 6342,
      "tf": 6343,
      "Safemoon": 6344,
      "ently": 6345,
      "arp": 6346,
      "OlympicGames": 6347,
      "Ġworse": 6348,
      "Ġchoice": 6349,
      "yd": 6350,
      "GG": 6351,
      "Ġpressure": 6352,
      "launch": 6353,
      "Ġmissing": 6354,
      "Ġauto": 6355,
      "Ġreli": 6356,
      "Ġ-&": 6357,
      "Ġwanna": 6358,
      "ilot": 6359,
      "Ġdev": 6360,
      "ĠMonth": 6361,
      "Ġcompetit": 6362,
      "YT": 6363,
      "ĠDep": 6364,
      "oad": 6365,
      "lit": 6366,
      "sz": 6367,
      "alaxy": 6368,
      "These": 6369,
      "SV": 6370,
      "Ġgam": 6371,
      "ãĢ": 6372,
      "nn": 6373,
      "Vaccine": 6374,
      "uni": 6375,
      "ĩï¸ı": 6376,
      "Ġsus": 6377,
      "ĠTotal": 6378,
      "INA": 6379,
      "Ġterms": 6380,
      "Public": 6381,
      "ĠNet": 6382,
      "entiment": 6383,
      "ĠLooks": 6384,
      "Ġreading": 6385,
      "tik": 6386,
      "ðŁĳĮ": 6387,
      "Ġgaming": 6388,
      "Luffy": 6389,
      "Ġload": 6390,
      "Ce": 6391,
      "ĊĊĠĠĠ": 6392,
      "Part": 6393,
      "Ġfeels": 6394,
      "heme": 6395,
      "wealth": 6396,
      "Ġlearning": 6397,
      "Ġscenario": 6398,
      "Ġ69": 6399,
      "ðŁĵĪðŁĵĪ": 6400,
      "amazon": 6401,
      "fficient": 6402,
      "Ġreve": 6403,
      "Key": 6404,
      "ĠMer": 6405,
      "Ġemail": 6406,
      "arible": 6407,
      "Ġexit": 6408,
      "ternational": 6409,
      "Dom": 6410,
      "je": 6411,
      "uffett": 6412,
      "ĠGreed": 6413,
      "Ġasked": 6414,
      "Ġflag": 6415,
      "Comments": 6416,
      "Ġcontrib": 6417,
      "anging": 6418,
      "ĠGreen": 6419,
      "BULL": 6420,
      "Ġhalving": 6421,
      "Ġrandom": 6422,
      "vant": 6423,
      "kept": 6424,
      "icroStrategy": 6425,
      "pitbulltoken": 6426,
      "FR": 6427,
      "Ġbubble": 6428,
      "DI": 6429,
      "ief": 6430,
      "Ġincredible": 6431,
      "Ġfaced": 6432,
      "ĠOR": 6433,
      "ï¸ıâĻ": 6434,
      "TY": 6435,
      "750": 6436,
      "ZEC": 6437,
      "Ġweb": 6438,
      "ih": 6439,
      "Ġ85": 6440,
      "EVER": 6441,
      ".)": 6442,
      "Stay": 6443,
      "ĠRob": 6444,
      "ALTSEASON": 6445,
      "cale": 6446,
      "ronavirus": 6447,
      "Ġwhether": 6448,
      "HQ": 6449,
      "ĠHey": 6450,
      "sat": 6451,
      "Ġadding": 6452,
      "Ġbanking": 6453,
      "ĠðŁĳĪ": 6454,
      "Ġplus": 6455,
      "ÙĬ": 6456,
      "Pe": 6457,
      "NI": 6458,
      "Work": 6459,
      "ðŁķ": 6460,
      "Ġmob": 6461,
      "passive": 6462,
      "Liquid": 6463,
      "orage": 6464,
      "AZ": 6465,
      "Average": 6466,
      "ðŁªĻ": 6467,
      "Ġprior": 6468,
      "ĠExp": 6469,
      "abet": 6470,
      "charts": 6471,
      "Ġhistor": 6472,
      "holders": 6473,
      "elsius": 6474,
      "ĠTradingView": 6475,
      "thedip": 6476,
      "ounder": 6477,
      "ĠðŁ¤·": 6478,
      "Ġbill": 6479,
      "obile": 6480,
      "Squ": 6481,
      "cro": 6482,
      "Tor": 6483,
      "Ġdecision": 6484,
      "Ġmoved": 6485,
      "Ġlimited": 6486,
      "flix": 6487,
      "bro": 6488,
      "NFTCollection": 6489,
      "Also": 6490,
      "flect": 6491,
      "Ġdesc": 6492,
      "df": 6493,
      "Ġ~$": 6494,
      "ugg": 6495,
      "QNT": 6496,
      "TON": 6497,
      "rt": 6498,
      "Ġsecret": 6499,
      "EthereumClassic": 6500,
      "Ġtip": 6501,
      "ĠAnalysts": 6502,
      "iw": 6503,
      "Ġthous": 6504,
      "Ġthinks": 6505,
      "mj": 6506,
      "March": 6507,
      "Ġleader": 6508,
      "170": 6509,
      "rel": 6510,
      "Ġwasn": 6511,
      "Ġfollowed": 6512,
      "Dow": 6513,
      "Ġpeak": 6514,
      "Ġstructure": 6515,
      "Ġdeath": 6516,
      "asc": 6517,
      "INR": 6518,
      "Ġunderstanding": 6519,
      "BestDraw": 6520,
      "BestDrawToken": 6521,
      "DL": 6522,
      "Ġdie": 6523,
      "gered": 6524,
      "share": 6525,
      "aiting": 6526,
      "175": 6527,
      "Nano": 6528,
      "Spot": 6529,
      "stop": 6530,
      "ussian": 6531,
      "ĠðŁ¥³": 6532,
      "OY": 6533,
      "illy": 6534,
      "force": 6535,
      "Over": 6536,
      "Ġdelivery": 6537,
      "ĠAnother": 6538,
      "NIO": 6539,
      "ctions": 6540,
      "Chart": 6541,
      "Cat": 6542,
      "Cola": 6543,
      "Dep": 6544,
      "Ġheading": 6545,
      "Ġrecovery": 6546,
      "SW": 6547,
      "ĊĊĠĠĠĠĠĠĠĠĠ": 6548,
      "Ġinvestments": 6549,
      "Ġanalysed": 6550,
      "Breaking": 6551,
      "idance": 6552,
      "Ġcompared": 6553,
      "omb": 6554,
      "ĠDom": 6555,
      "UAL": 6556,
      "osmos": 6557,
      "Ġking": 6558,
      "ĠHolders": 6559,
      "Val": 6560,
      "abolic": 6561,
      "BINANCE": 6562,
      "CornDeFi": 6563,
      "Ġ400": 6564,
      "erves": 6565,
      "Ġexperienced": 6566,
      "Ġcosts": 6567,
      "Ġimprove": 6568,
      "Ġ150": 6569,
      "LAY": 6570,
      "dds": 6571,
      "Ġlegit": 6572,
      "NBA": 6573,
      "Inst": 6574,
      "Ġapps": 6575,
      "tel": 6576,
      "Ġjourney": 6577,
      "ILLION": 6578,
      "Ham": 6579,
      "Ġavo": 6580,
      "ĠSat": 6581,
      "Ġsurprised": 6582,
      "GOLD": 6583,
      "Scan": 6584,
      "charity": 6585,
      "chool": 6586,
      "CryptoGems": 6587,
      "Ġvote": 6588,
      "ita": 6589,
      "ĠWednesday": 6590,
      "Tokyo": 6591,
      "ĠðŁ¤©": 6592,
      "ĠBr": 6593,
      "ĠDogecoin": 6594,
      "Internet": 6595,
      "Ġcirc": 6596,
      "Ġconference": 6597,
      "SAN": 6598,
      "%$": 6599,
      "Ġcheaper": 6600,
      "Ġdig": 6601,
      "ĠCur": 6602,
      "ðŁĶ¸": 6603,
      "ĠðŁĳı": 6604,
      "ĠIMO": 6605,
      "lliot": 6606,
      "mad": 6607,
      "cryptsy": 6608,
      "Ġlaunching": 6609,
      "Ġdivergence": 6610,
      "GPRO": 6611,
      "ĠEnd": 6612,
      "ĠKey": 6613,
      "2019": 6614,
      "has": 6615,
      "HC": 6616,
      "lection": 6617,
      "Ġdomin": 6618,
      "Ġ06": 6619,
      "Ġeasier": 6620,
      "erin": 6621,
      "lu": 6622,
      "Ġcri": 6623,
      "Ġ01": 6624,
      "aha": 6625,
      "rem": 6626,
      "ðŁĶ¥ðŁĶ¥ðŁĶ¥ðŁĶ¥": 6627,
      "DW": 6628,
      "Ġsuck": 6629,
      "Ġheart": 6630,
      "ĠUSA": 6631,
      "Donald": 6632,
      "ONEY": 6633,
      "ĠRa": 6634,
      "Ġpersonal": 6635,
      "ðŁİģ": 6636,
      "sold": 6637,
      "freedom": 6638,
      "Ġadvantage": 6639,
      "ayscale": 6640,
      "Ġalt": 6641,
      "ĠATM": 6642,
      "Friday": 6643,
      "buythedip": 6644,
      "ðŁĩ®ðŁĩ·": 6645,
      "FIT": 6646,
      "Ġir": 6647,
      "ARK": 6648,
      "Ġbankrupt": 6649,
      "NYSE": 6650,
      "Ġmacro": 6651,
      "gb": 6652,
      "racts": 6653,
      "MP": 6654,
      "ðŁ¥·": 6655,
      "Terra": 6656,
      "Ġchat": 6657,
      "Ġachieving": 6658,
      "QT": 6659,
      "Ġcases": 6660,
      "Ġdriving": 6661,
      "Ġaim": 6662,
      "Fan": 6663,
      "Ġlif": 6664,
      "Ear": 6665,
      "Russia": 6666,
      "($": 6667,
      "mi": 6668,
      "ĠAbout": 6669,
      "mission": 6670,
      "Ġflat": 6671,
      "alf": 6672,
      "Ġpatient": 6673,
      "ĠGod": 6674,
      "ĠCalls": 6675,
      "ĠAmerican": 6676,
      "ĠBot": 6677,
      "ste": 6678,
      "Ġknowledge": 6679,
      "Ġaccumulate": 6680,
      "security": 6681,
      "ĠGoing": 6682,
      "115": 6683,
      "Ġer": 6684,
      "bel": 6685,
      "Make": 6686,
      "Ġtw": 6687,
      "Ġreferral": 6688,
      "Ġadopt": 6689,
      "etimes": 6690,
      "outs": 6691,
      "oT": 6692,
      "Coins": 6693,
      "ondon": 6694,
      "Ġstronger": 6695,
      "Av": 6696,
      "BluesparrowC": 6697,
      "erman": 6698,
      "AF": 6699,
      "rowd": 6700,
      "Ak": 6701,
      "Green": 6702,
      "Ġoffering": 6703,
      "Ġsitting": 6704,
      "bes": 6705,
      "cles": 6706,
      "ĠðŁİī": 6707,
      "inds": 6708,
      "Ass": 6709,
      "bter": 6710,
      "Ġdumb": 6711,
      "ivation": 6712,
      "ĠBSC": 6713,
      "TGT": 6714,
      "Watcher": 6715,
      "Ġmessage": 6716,
      "ĊĠĠĠĠĠĠĠĠĠĠĠĠ": 6717,
      "Imagine": 6718,
      "CHAIN": 6719,
      "Ġindivid": 6720,
      "SBUX": 6721,
      "Ġuses": 6722,
      "Ġcompl": 6723,
      "passiveincome": 6724,
      "Ġoften": 6725,
      "Ġmentioned": 6726,
      "den": 6727,
      "ANT": 6728,
      "redict": 6729,
      "160": 6730,
      "ĠTechnical": 6731,
      "Ġaccepting": 6732,
      "Ġorgan": 6733,
      "ĠMOON": 6734,
      "twave": 6735,
      "Ġclean": 6736,
      "Ġfool": 6737,
      "osh": 6738,
      "ðŁļ¨ðŁĲĭ": 6739,
      "âŃĲï¸ı": 6740,
      "Ġmetric": 6741,
      "Ġrelated": 6742,
      "ĠRec": 6743,
      "Ġphys": 6744,
      "Ġindicator": 6745,
      "Ġtriggered": 6746,
      "Ġthreat": 6747,
      "Ġwinning": 6748,
      "cs": 6749,
      "HL": 6750,
      "WY": 6751,
      "ðĿĹ¶": 6752,
      "ror": 6753,
      "ufact": 6754,
      "105": 6755,
      "ĠBlueSparrow": 6756,
      "ĠInvestment": 6757,
      "ĠEU": 6758,
      "ðŁı¾": 6759,
      "Ġactual": 6760,
      "Ġfront": 6761,
      "Ġallows": 6762,
      "Ġdeb": 6763,
      "Iran": 6764,
      "ĠCentral": 6765,
      "ĠCOVID": 6766,
      "onym": 6767,
      "club": 6768,
      "190": 6769,
      "watch": 6770,
      "Ġfunding": 6771,
      "Em": 6772,
      "inja": 6773,
      "Ġaccurate": 6774,
      "Ġcents": 6775,
      "ĠAUD": 6776,
      "ĠSTO": 6777,
      "WatcherGuru": 6778,
      "Ġ2013": 6779,
      "ĠLitecoin": 6780,
      "308": 6781,
      "HK": 6782,
      "ĠBearish": 6783,
      "Ġdist": 6784,
      "iny": 6785,
      "âĢ¡": 6786,
      "DAX": 6787,
      "chan": 6788,
      "STR": 6789,
      "unks": 6790,
      "earnings": 6791,
      "ETHEREUM": 6792,
      "ECO": 6793,
      "imb": 6794,
      "Ġconcept": 6795,
      "ĠLeg": 6796,
      "AME": 6797,
      "twtr": 6798,
      "Ġpage": 6799,
      "Ġknown": 6800,
      "ishu": 6801,
      "kele": 6802,
      "ðŁĲ»": 6803,
      "Ġdirectly": 6804,
      "ĠBlack": 6805,
      "Ġalone": 6806,
      "ĠPlatform": 6807,
      "hour": 6808,
      "Ġdetected": 6809,
      "Out": 6810,
      "Ġattempt": 6811,
      "oper": 6812,
      "ification": 6813,
      "Ġ-$": 6814,
      "undred": 6815,
      "Ġkids": 6816,
      "roid": 6817,
      "bch": 6818,
      "dogearmy": 6819,
      "umber": 6820,
      "shot": 6821,
      "atives": 6822,
      "aul": 6823,
      "vr": 6824,
      "db": 6825,
      "Ġuptrend": 6826,
      "Ġpo": 6827,
      "ek": 6828,
      "hy": 6829,
      "Ġhitting": 6830,
      "Ġâģ¦@": 6831,
      "eriv": 6832,
      "Ġinspiration": 6833,
      "Shibnobi": 6834,
      "CMG": 6835,
      "014": 6836,
      "Down": 6837,
      "nal": 6838,
      "Burn": 6839,
      "Sim": 6840,
      "advices": 6841,
      "daily": 6842,
      "ĠTweet": 6843,
      "atters": 6844,
      "Ġgreed": 6845,
      "rude": 6846,
      "Ġanticipated": 6847,
      "220": 6848,
      "ashing": 6849,
      "GL": 6850,
      "ĠImp": 6851,
      "Ġaccumulation": 6852,
      "raday": 6853,
      "ĠðŁĴ°ðŁĴ´": 6854,
      "going": 6855,
      "Come": 6856,
      "arbon": 6857,
      "ĠCON": 6858,
      "Nasdaq": 6859,
      "polygon": 6860,
      "BestBid": 6861,
      "BestAsk": 6862,
      "arc": 6863,
      "istribution": 6864,
      "Ġaf": 6865,
      "cryptoartist": 6866,
      "irthday": 6867,
      "SD": 6868,
      "ĠâĢ¼": 6869,
      "ĠInvestors": 6870,
      "ðŁĴ«": 6871,
      "Ġinstitutional": 6872,
      "youtube": 6873,
      "%)ðŁŁ¢": 6874,
      "Ġcloser": 6875,
      "Hi": 6876,
      "åĿ": 6877,
      "Ġund": 6878,
      "Ġchild": 6879,
      "Ġcorpor": 6880,
      "dr": 6881,
      "Ap": 6882,
      "GILD": 6883,
      "loye": 6884,
      "Ġprovider": 6885,
      "Ġmember": 6886,
      "ENJ": 6887,
      "Ġinsane": 6888,
      "PLE": 6889,
      "olid": 6890,
      "ĠSIGN": 6891,
      "Ġsituation": 6892,
      "urch": 6893,
      "etime": 6894,
      "ĠExpected": 6895,
      "Ġdestroy": 6896,
      "Ġplays": 6897,
      "Ġresult": 6898,
      "while": 6899,
      "Ġinevitable": 6900,
      "ANK": 6901,
      "ĠCNBC": 6902,
      "rigger": 6903,
      "Ġthird": 6904,
      "strategy": 6905,
      "ibility": 6906,
      "oved": 6907,
      "Ġnote": 6908,
      "inn": 6909,
      "rying": 6910,
      "Ġsymbol": 6911,
      "vet": 6912,
      "SHIBA": 6913,
      "eem": 6914,
      "acking": 6915,
      "beat": 6916,
      "vate": 6917,
      "Ġapproaches": 6918,
      "equity": 6919,
      "SF": 6920,
      "Ġsavings": 6921,
      "JD": 6922,
      "Ġblack": 6923,
      "otto": 6924,
      "dated": 6925,
      "loyees": 6926,
      "kucoincom": 6927,
      "yr": 6928,
      "Ġtuned": 6929,
      "isode": 6930,
      "enny": 6931,
      "Interest": 6932,
      "MRK": 6933,
      "Ġequity": 6934,
      "atri": 6935,
      "urities": 6936,
      "Ġexpos": 6937,
      "Ġevents": 6938,
      "Ġaddresses": 6939,
      "ĠHourly": 6940,
      "DASH": 6941,
      "td": 6942,
      "apid": 6943,
      "Add": 6944,
      "?$": 6945,
      "arrative": 6946,
      "Ġpla": 6947,
      "van": 6948,
      "oves": 6949,
      "wr": 6950,
      "Ġ58": 6951,
      "phabet": 6952,
      "Wazir": 6953,
      "/#": 6954,
      "artwork": 6955,
      "Ġbrings": 6956,
      "ĠHIGH": 6957,
      "Ġbacked": 6958,
      "ĠUnder": 6959,
      "Sn": 6960,
      "idew": 6961,
      "ĠBusiness": 6962,
      "make": 6963,
      "Ġspeed": 6964,
      "wallstreet": 6965,
      "tiktok": 6966,
      "Ġ250": 6967,
      "leg": 6968,
      "Decentralised": 6969,
      "RUNE": 6970,
      "106": 6971,
      "Ġsearch": 6972,
      "inary": 6973,
      "Ø§ÙĦ": 6974,
      "Ġanalysts": 6975,
      "Ġsurprise": 6976,
      "lying": 6977,
      "ĠFOMO": 6978,
      "Ġpodcast": 6979,
      "ethax": 6980,
      "SHORT": 6981,
      "Ġconfirmation": 6982,
      "Salvador": 6983,
      "ALLET": 6984,
      "ĠĠĠĠĠĠĠĠĠĠĠĠĠĠĠĠĠ": 6985,
      "ðŁĴ´ðŁĴ°": 6986,
      "ðŁĩ®ðŁĩ³": 6987,
      "war": 6988,
      "vacy": 6989,
      "cyber": 6990,
      "hbar": 6991,
      "Ġstrateg": 6992,
      "ðŁı¿": 6993,
      "124": 6994,
      "Ġowns": 6995,
      "FD": 6996,
      "Âį": 6997,
      "Ġpropos": 6998,
      "Ġscreen": 6999,
      "MENT": 7000,
      "Ġsumm": 7001,
      "rief": 7002,
      "Retweet": 7003,
      "360": 7004,
      "haps": 7005,
      "ĠRO": 7006,
      "ITE": 7007,
      "Americ": 7008,
      "Ġ349": 7009,
      "VXX": 7010,
      "Visit": 7011,
      "Ġpath": 7012,
      "bought": 7013,
      "Ġgreatest": 7014,
      "Look": 7015,
      "Ġsector": 7016,
      "168": 7017,
      "Ġupgrade": 7018,
      "Ġtag": 7019,
      "Ġroadmap": 7020,
      "Ġâĸ¶ï¸ı": 7021,
      "Ġcaus": 7022,
      "zer": 7023,
      "ðŁĶµ": 7024,
      "ĠQuant": 7025,
      "ĠJapan": 7026,
      "Ġofficially": 7027,
      "icated": 7028,
      "ĠĠĠĊ": 7029,
      "ĠEVER": 7030,
      "Ġ02": 7031,
      "âı°": 7032,
      "NL": 7033,
      "Ġcommon": 7034,
      "bitt": 7035,
      "Sen": 7036,
      "amed": 7037,
      "Ġfunny": 7038,
      "555": 7039,
      "Ġimmedi": 7040,
      "WW": 7041,
      "Ġmulti": 7042,
      "apt": 7043,
      "Ġstats": 7044,
      "ĠPol": 7045,
      "ij": 7046,
      "UND": 7047,
      "Ġends": 7048,
      "ECT": 7049,
      "adian": 7050,
      "imates": 7051,
      "Ġemb": 7052,
      "Ġreceived": 7053,
      "Ġstopped": 7054,
      "Pump": 7055,
      "Ġshut": 7056,
      "sl": 7057,
      "ĠHit": 7058,
      "Ġputting": 7059,
      "awk": 7060,
      "yan": 7061,
      "reo": 7062,
      "ĠEnjoy": 7063,
      "ĠAgain": 7064,
      "inated": 7065,
      "ORN": 7066,
      "yle": 7067,
      "Ġretrace": 7068,
      "raded": 7069,
      "â¬Ĩ": 7070,
      "Ġpopularity": 7071,
      "Ġdisapp": 7072,
      "Ġclearly": 7073,
      "ript": 7074,
      "ĠSpace": 7075,
      "Avalanche": 7076,
      "Future": 7077,
      "OLT": 7078,
      "sm": 7079,
      "ĠSet": 7080,
      "PE": 7081,
      "Bitcoins": 7082,
      "ĠADA": 7083,
      "Ġstage": 7084,
      "Ġmobile": 7085,
      "Ġdecline": 7086,
      "rarible": 7087,
      "ĠDate": 7088,
      "iven": 7089,
      "135": 7090,
      "vlad": 7091,
      "ĠAir": 7092,
      "Ġcareful": 7093,
      "Ġturned": 7094,
      "Ġident": 7095,
      "ĠDone": 7096,
      "redd": 7097,
      "883": 7098,
      "Jack": 7099,
      "Ġinstitutions": 7100,
      "Ġcult": 7101,
      "Ġ53": 7102,
      "Nifty": 7103,
      "Ġrid": 7104,
      "forextrading": 7105,
      "USO": 7106,
      "ulus": 7107,
      "gorith": 7108,
      "ĠOpenSea": 7109,
      "Ġinvolved": 7110,
      "Ġadvert": 7111,
      "Ġclick": 7112,
      "AAVE": 7113,
      "abl": 7114,
      "THE": 7115,
      "Ġeffort": 7116,
      "ĠGovern": 7117,
      "Ġcloses": 7118,
      "Diff": 7119,
      "Ġnormal": 7120,
      "ðŁ¤ĵ": 7121,
      "Ġkeys": 7122,
      "Ġseries": 7123,
      "Got": 7124,
      "Ġkick": 7125,
      "nvda": 7126,
      "Ġboost": 7127,
      "Ġbitcoins": 7128,
      "Ġpartner": 7129,
      "ruary": 7130,
      "ĠCompany": 7131,
      "Ġvaluation": 7132,
      "OptionsTrading": 7133,
      "STX": 7134,
      "888": 7135,
      "Ġwarn": 7136,
      "Ġpredicted": 7137,
      "007": 7138,
      "ĠLaun": 7139,
      "Ġknew": 7140,
      "ðŁĶ¹": 7141,
      "Ġtrendline": 7142,
      "pose": 7143,
      "Ġregarding": 7144,
      "Ġfalls": 7145,
      "alytics": 7146,
      "anft": 7147,
      "Ġconsolidation": 7148,
      "Ġwhatever": 7149,
      "116": 7150,
      "Py": 7151,
      "NK": 7152,
      "ica": 7153,
      "ethod": 7154,
      "Ġunless": 7155,
      "Ġvolatile": 7156,
      "Ġoutside": 7157,
      "AVA": 7158,
      "ĠBelow": 7159,
      "ĠIDO": 7160,
      "ĠVideo": 7161,
      "à¤ķ": 7162,
      "013": 7163,
      "Ġreserve": 7164,
      "care": 7165,
      "ĠSTR": 7166,
      "++": 7167,
      "Ġprinting": 7168,
      "fre": 7169,
      "ante": 7170,
      "CVX": 7171,
      "ĠMARCH": 7172,
      "Inc": 7173,
      "INDER": 7174,
      "Ġcombin": 7175,
      "Ġdecade": 7176,
      "Ġcouldn": 7177,
      "idden": 7178,
      "Ġ84": 7179,
      "aka": 7180,
      "Ġmeeting": 7181,
      "Ġdowntrend": 7182,
      "hamster": 7183,
      "Shares": 7184,
      "Ġvalid": 7185,
      "ðŁ¤ĳðŁ¤ĳ": 7186,
      "iller": 7187,
      "Bybit": 7188,
      "Ġwins": 7189,
      "sait": 7190,
      "ĠChe": 7191,
      "kripto": 7192,
      "âĢ¦.": 7193,
      "zing": 7194,
      "pandagirltoken": 7195,
      "ToEarn": 7196,
      "nftdrop": 7197,
      "pective": 7198,
      "Ġshift": 7199,
      "CakeFinance": 7200,
      "rack": 7201,
      "ĠShares": 7202,
      "Ġregist": 7203,
      "Ġbitstamp": 7204,
      "ĠLiquidated": 7205,
      "Ġaltern": 7206,
      "Ġgrab": 7207,
      "Ġtried": 7208,
      "Mot": 7209,
      "Įï¸ı": 7210,
      "IF": 7211,
      "ĠWIN": 7212,
      "ĠSunday": 7213,
      "COST": 7214,
      "ĠSaylor": 7215,
      "Safe": 7216,
      "Ġoverall": 7217,
      "Orijin": 7218,
      "Ùħ": 7219,
      "Ġinfr": 7220,
      "¥ï¸ı": 7221,
      "acle": 7222,
      "Ġwalk": 7223,
      "Ġbattery": 7224,
      "?\"": 7225,
      "oop": 7226,
      "ciety": 7227,
      "Pulse": 7228,
      "isper": 7229,
      "eos": 7230,
      "memepad": 7231,
      "ously": 7232,
      "Ġplayers": 7233,
      "live": 7234,
      "aur": 7235,
      "Ġeveryday": 7236,
      "fy": 7237,
      "lation": 7238,
      "Ġspent": 7239,
      "Ġnotice": 7240,
      "Ġfundamentals": 7241,
      "Leg": 7242,
      "Å½": 7243,
      "Ġground": 7244,
      "ĠCy": 7245,
      "ĠBuying": 7246,
      "Cosmos": 7247,
      "VXY": 7248,
      "Ġcentralized": 7249,
      "Ġcustomer": 7250,
      "ctor": 7251,
      "ava": 7252,
      "ali": 7253,
      "Ġtriangle": 7254,
      "TheCryptoL": 7255,
      "Ġinfrastructure": 7256,
      "Fl": 7257,
      "Ġthrow": 7258,
      "850": 7259,
      "atoshis": 7260,
      "Ġfed": 7261,
      "pend": 7262,
      "sk": 7263,
      "ORK": 7264,
      "paper": 7265,
      "Ġpack": 7266,
      "ined": 7267,
      "Anyone": 7268,
      "Ġ2014": 7269,
      "NOW": 7270,
      "may": 7271,
      "ideos": 7272,
      "AVES": 7273,
      "à¤Łà¤ķ": 7274,
      "Ġlives": 7275,
      "asset": 7276,
      "Ġhelping": 7277,
      "ĩà¤¨": 7278,
      "à¤ĩà¤¨": 7279,
      "à¥ī": 7280,
      "athie": 7281,
      "Ġconfident": 7282,
      "tim": 7283,
      "Ġdropping": 7284,
      "ĠDCA": 7285,
      "Social": 7286,
      "Â£": 7287,
      "ishing": 7288,
      "ĠCB": 7289,
      "ideways": 7290,
      "Ben": 7291,
      "YPL": 7292,
      "mn": 7293,
      "ragon": 7294,
      "ERC": 7295,
      "ĠPump": 7296,
      "Ġtimefr": 7297,
      "coingecko": 7298,
      "Ġada": 7299,
      "add": 7300,
      "Ġnarrative": 7301,
      "HuobiGlobal": 7302,
      "arry": 7303,
      "rilliant": 7304,
      "çĶ": 7305,
      "PA": 7306,
      "PEN": 7307,
      "Uniswap": 7308,
      "001": 7309,
      "Ġcharg": 7310,
      "Ġbasis": 7311,
      "mg": 7312,
      "omething": 7313,
      "LV": 7314,
      "THETA": 7315,
      "Ġ77": 7316,
      "111": 7317,
      "ĠMAC": 7318,
      "ĠBINANCE": 7319,
      "ĠâĻ": 7320,
      "Oil": 7321,
      "apple": 7322,
      "ĠER": 7323,
      "Ġconvert": 7324,
      "Ġlocked": 7325,
      "Ġultimate": 7326,
      "Ġ51": 7327,
      "STOCK": 7328,
      "alex": 7329,
      "tx": 7330,
      "âĿ¯": 7331,
      "Ġhype": 7332,
      "198": 7333,
      "Ġfilled": 7334,
      "ĠNever": 7335,
      "ĠAlgos": 7336,
      "230": 7337,
      "NFTartists": 7338,
      "lass": 7339,
      "Ġpubl": 7340,
      "foundation": 7341,
      "reddit": 7342,
      "PYPL": 7343,
      "Ġ83": 7344,
      "Vitalik": 7345,
      "Ġwow": 7346,
      "ANS": 7347,
      "ITION": 7348,
      "order": 7349,
      "Ġap": 7350,
      "riends": 7351,
      "ĠChannel": 7352,
      "ĠPo": 7353,
      "ORCL": 7354,
      "iden": 7355,
      "ĠFR": 7356,
      "185": 7357,
      "ðŁĮķ": 7358,
      "from": 7359,
      "oman": 7360,
      "Ġstrongly": 7361,
      "ĠâĿ¤": 7362,
      "ĠEconom": 7363,
      "ĠOh": 7364,
      "india": 7365,
      "CRYP": 7366,
      "MW": 7367,
      "Ġcrack": 7368,
      "ĠSIGNAL": 7369,
      "Ġconvers": 7370,
      "ĠInfo": 7371,
      "Ġsellers": 7372,
      "103": 7373,
      "bittrex": 7374,
      "ĠMiss": 7375,
      "icker": 7376,
      "utive": 7377,
      "Ġuseful": 7378,
      "TheCryptoLark": 7379,
      "Ġefforts": 7380,
      "Ġpays": 7381,
      "orbex": 7382,
      "Ġ05": 7383,
      "ĠBTCUSD": 7384,
      "Ġissu": 7385,
      "ARD": 7386,
      "illionaire": 7387,
      "ĠCEX": 7388,
      "Ra": 7389,
      "Ġppl": 7390,
      "omics": 7391,
      "Ġrejected": 7392,
      "CN": 7393,
      "ĠBitstamp": 7394,
      "Polkadot": 7395,
      "WallStreet": 7396,
      "ĠBY": 7397,
      "Ġinvestig": 7398,
      "Ġ54": 7399,
      "presale": 7400,
      "URN": 7401,
      "ĠEnergy": 7402,
      "Staking": 7403,
      "Ġtyp": 7404,
      "Ġpolicy": 7405,
      "è²": 7406,
      "Ġspending": 7407,
      "DYOR": 7408,
      "EGLD": 7409,
      "âĢļ": 7410,
      "Ġphase": 7411,
      "Ġcollapse": 7412,
      "Ġheavy": 7413,
      "Creo": 7414,
      "Hot": 7415,
      "short": 7416,
      "Ġoriginal": 7417,
      "OOOO": 7418,
      "DXY": 7419,
      "ĠCost": 7420,
      "Ġ57": 7421,
      "Ġreminder": 7422,
      "Ġtool": 7423,
      "Ġsn": 7424,
      "Ġâļ¡ï¸ı": 7425,
      "ElSalvador": 7426,
      "Ġkeeping": 7427,
      "Ġlaunches": 7428,
      "CRE": 7429,
      "ln": 7430,
      "Øª": 7431,
      "ĠMORE": 7432,
      "POL": 7433,
      "ĠHuge": 7434,
      "ADBE": 7435,
      "Even": 7436,
      "YM": 7437,
      "ĠPut": 7438,
      "RG": 7439,
      "ulti": 7440,
      "Ġinclude": 7441,
      "ðŁĵīðŁĵī": 7442,
      "Low": 7443,
      "Ġdesigned": 7444,
      "Sign": 7445,
      "Ġreliable": 7446,
      "Pi": 7447,
      "pts": 7448,
      "vere": 7449,
      "estate": 7450,
      "ðŁĺī": 7451,
      "Ġrole": 7452,
      "Ġhandle": 7453,
      "ĠFind": 7454,
      "ĠBitcoins": 7455,
      "SPOT": 7456,
      "Ġsession": 7457,
      "ĠATS": 7458,
      "165": 7459,
      "ĠðŁĺģ": 7460,
      "ĠRating": 7461,
      "ICK": 7462,
      "ray": 7463,
      "ayib": 7464,
      "ĠFED": 7465,
      "futures": 7466,
      "ĠWow": 7467,
      "ĠLX": 7468,
      "Its": 7469,
      "Ġmode": 7470,
      "Ġjoke": 7471,
      "urance": 7472,
      "oyal": 7473,
      "mod": 7474,
      "iest": 7475,
      "SM": 7476,
      "tradeosiann": 7477,
      "Ġhel": 7478,
      "Ġ##": 7479,
      "Ed": 7480,
      "ĠColl": 7481,
      "ĠSignals": 7482,
      "ĠMade": 7483,
      "ĠLevel": 7484,
      "225": 7485,
      "yl": 7486,
      "mat": 7487,
      "ĠPower": 7488,
      "tips": 7489,
      "cour": 7490,
      "ĠAltcoin": 7491,
      "Ġlines": 7492,
      "Ġdiscord": 7493,
      "creoengine": 7494,
      "IST": 7495,
      "Ġwild": 7496,
      "âĢĶâĢĶ": 7497,
      "CovidVaccine": 7498,
      "Computer": 7499,
      "zo": 7500,
      "365": 7501,
      "ERO": 7502,
      "Ġmetaverse": 7503,
      "Ġwake": 7504,
      "elist": 7505,
      "used": 7506,
      "telligence": 7507,
      "Ġpumps": 7508,
      "ĠPlan": 7509,
      "Ġgeneral": 7510,
      "Lunar": 7511,
      "Ġhundred": 7512,
      "strong": 7513,
      "ĠFee": 7514,
      "ĠHig": 7515,
      "[@": 7516,
      "Ġpot": 7517,
      "ushed": 7518,
      "à¥ĩ": 7519,
      "CON": 7520,
      "Ġusually": 7521,
      "Ġratio": 7522,
      "ĠAC": 7523,
      "FINDER": 7524,
      "Ġswap": 7525,
      "Ġmeas": 7526,
      "108": 7527,
      "Does": 7528,
      "ĠBulls": 7529,
      "Ġtalks": 7530,
      "Ġforecast": 7531,
      "Ġemployees": 7532,
      "ĠSIGMA": 7533,
      "Ġenthusiastic": 7534,
      "erswap": 7535,
      "Ġvalued": 7536,
      "ĠCROSSFINDER": 7537,
      "Ġinitial": 7538,
      "WN": 7539,
      "Ġaut": 7540,
      "AMA": 7541,
      "Ġbenefits": 7542,
      "week": 7543,
      "ðŁĸ": 7544,
      "Ġpushing": 7545,
      "ðŁ¥³ðŁ¥³": 7546,
      "Ġdecided": 7547,
      "ĠMany": 7548,
      "reasury": 7549,
      "there": 7550,
      "forexsignals": 7551,
      "Ġ56": 7552,
      "ĠONLY": 7553,
      "ĠBanks": 7554,
      "Bitfinex": 7555,
      "ðŁĴ¯ðŁĴ¯": 7556,
      "Ġappreciate": 7557,
      "raction": 7558,
      "WAVES": 7559,
      "»ðĿĹ": 7560,
      "Ġcards": 7561,
      "comp": 7562,
      "ĠCurated": 7563,
      "While": 7564,
      "Ġliving": 7565,
      "Ġdog": 7566,
      "Ġsees": 7567,
      "Ġprovides": 7568,
      "ACH": 7569,
      "xc": 7570,
      "ðŁĺįðŁĺį": 7571,
      "Super": 7572,
      "AltcoinDaily": 7573,
      "ooth": 7574,
      "Ġdiv": 7575,
      "ĠðŁ¥·": 7576,
      "gel": 7577,
      "Ġnecess": 7578,
      "inking": 7579,
      "LRC": 7580,
      "ĠRight": 7581,
      "Ġengine": 7582,
      "BTS": 7583,
      "Ġdetail": 7584,
      "ĠSl": 7585,
      "ALLY": 7586,
      "Ro": 7587,
      "arles": 7588,
      "ĠBO": 7589,
      "Ġauthor": 7590,
      "Ġfood": 7591,
      "Ġstrugg": 7592,
      "ĠBULLISH": 7593,
      "Going": 7594,
      "Ge": 7595,
      "Ġ03": 7596,
      "usion": 7597,
      "girl": 7598,
      "eeper": 7599,
      "DF": 7600,
      "OLLOW": 7601,
      "ds": 7602,
      "Ġprop": 7603,
      "240": 7604,
      "2023": 7605,
      "ĠOnce": 7606,
      "Ġslowly": 7607,
      "Ġexpert": 7608,
      "ĠWork": 7609,
      "112": 7610,
      "Ġguar": 7611,
      "ĠðŁĶ»ðŁĶ»ðŁĶ»": 7612,
      "star": 7613,
      "2018": 7614,
      "ðŁĲ³ðŁļ¨": 7615,
      "ĠPublish": 7616,
      "ĠDecentral": 7617,
      "Ġsuccessfully": 7618,
      "Af": 7619,
      "Ġslight": 7620,
      "NFTCommmunity": 7621,
      "ĠGuy": 7622,
      "Ġcur": 7623,
      "Ġya": 7624,
      "ĠIns": 7625,
      "Ġprefer": 7626,
      "ĠPartners": 7627,
      "trigger": 7628,
      "Alex": 7629,
      "atility": 7630,
      "ĠAlways": 7631,
      "Develop": 7632,
      "ðĿĹ²ðĿĺ": 7633,
      "ston": 7634,
      "lee": 7635,
      "Ġ2000": 7636,
      "ulf": 7637,
      "shi": 7638,
      "Ġfocused": 7639,
      "ðŁĵĭ": 7640,
      "ðŁĺŃ": 7641,
      "280": 7642,
      "check": 7643,
      "raft": 7644,
      "mu": 7645,
      "cer": 7646,
      "vesting": 7647,
      "join": 7648,
      "âĢĿÂ¥": 7649,
      "SIGN": 7650,
      "Ġavoid": 7651,
      "297": 7652,
      "çĶµ": 7653,
      "ĠChristmas": 7654,
      "ðŁĺĮ": 7655,
      "........": 7656,
      "ĠJul": 7657,
      "rive": 7658,
      "Ġwilling": 7659,
      "Ġstops": 7660,
      "Ord": 7661,
      "Would": 7662,
      "ĠOVER": 7663,
      "iami": 7664,
      "Ġcampaign": 7665,
      "Ġclients": 7666,
      "Ġ78": 7667,
      "Ġsteady": 7668,
      "Ġscore": 7669,
      "shit": 7670,
      "ĠNasdaq": 7671,
      "107": 7672,
      "Ġscalp": 7673,
      "Ġforce": 7674,
      "Ġrequire": 7675,
      "Hello": 7676,
      "itiz": 7677,
      "ĠĠĠĠĠĠĠĠĠĠĠĠĠĠĠĠĠĠĠĠĠĠĠĠĠĠĠĠĠĠĠĠ": 7678,
      "Ġhealthy": 7679,
      "Ġfour": 7680,
      "ETS": 7681,
      "Ġforming": 7682,
      "à¤Ĥ": 7683,
      "NFTshill": 7684,
      "Ġprize": 7685,
      "Ġemer": 7686,
      "UNCH": 7687,
      "¯ðŁĩµ": 7688,
      "ARE": 7689,
      "ĠHowever": 7690,
      "Sam": 7691,
      "Ġutil": 7692,
      "199": 7693,
      "reddcoin": 7694,
      "ĠMr": 7695,
      "BK": 7696,
      "ua": 7697,
      "ĠĊĊĠĠĠĠĠĠĠĠĠ": 7698,
      "vite": 7699,
      "Ġden": 7700,
      "RUT": 7701,
      "ĠEcosystem": 7702,
      "290": 7703,
      "Rew": 7704,
      "house": 7705,
      "Ġlaugh": 7706,
      "Ġhowever": 7707,
      "HOT": 7708,
      "ben": 7709,
      "Ġbud": 7710,
      "ĠNEXT": 7711,
      "ĠRem": 7712,
      "Ġbusinesses": 7713,
      "ĊĠĊ": 7714,
      "Ġcold": 7715,
      "à¤¬": 7716,
      "HBAR": 7717,
      "ĠHodl": 7718,
      "AltcoinDailyio": 7719,
      "ĊĠĠĠ": 7720,
      "rap": 7721,
      "650": 7722,
      "618": 7723,
      "ĠWA": 7724,
      "Ġglo": 7725,
      "ĠLOL": 7726,
      "ĠExcellent": 7727,
      "âļłï¸ı": 7728,
      "Car": 7729,
      "Ġà¤¸": 7730,
      "ĠFebruary": 7731,
      "Ġexposure": 7732,
      "ĠCal": 7733,
      "Sale": 7734,
      "ĠTRON": 7735,
      "Ġtrain": 7736,
      "118": 7737,
      "Ġow": 7738,
      "ming": 7739,
      "Ġâ¬ĩï¸ı": 7740,
      "104": 7741,
      "owered": 7742,
      "320": 7743,
      "Kr": 7744,
      "à¤µ": 7745,
      "Ġrev": 7746,
      "Ġfunction": 7747,
      "114": 7748,
      "ðŁĮŁ": 7749,
      "ĠTRX": 7750,
      "Ġsigns": 7751,
      "Ġscheme": 7752,
      "ĠFA": 7753,
      "Ġplatforms": 7754,
      "forextrader": 7755,
      "zen": 7756,
      "ĠCook": 7757,
      "ĊĠĠĠĠĠĠĠĠĠ": 7758,
      "ĠTHAT": 7759,
      "Ġnodes": 7760,
      "260": 7761,
      "Source": 7762,
      "Ġsad": 7763,
      "Ġreflect": 7764,
      "vt": 7765,
      "ĠðŁŁ¢(": 7766,
      "ĠAG": 7767,
      "Ġappears": 7768,
      "âĢįâĻĢï¸ı": 7769,
      "DROP": 7770,
      "enty": 7771,
      "rug": 7772,
      "Enter": 7773,
      "well": 7774,
      "Ġregret": 7775,
      "clusive": 7776,
      "Ġbasically": 7777,
      "à¤ľ": 7778,
      "Analysis": 7779,
      "illing": 7780,
      "Ġfigure": 7781,
      "see": 7782,
      "Ġstores": 7783,
      "ĠFiat": 7784,
      "Ġblog": 7785,
      "ĠAud": 7786,
      "ensor": 7787,
      "iPhone": 7788,
      "veloper": 7789,
      "si": 7790,
      "Ġpriced": 7791,
      "Ġnobody": 7792,
      "acker": 7793,
      "Ġà¤¬": 7794,
      "ĠSurvey": 7795,
      "117": 7796,
      "ĠEng": 7797,
      "won": 7798,
      "ĠLO": 7799,
      "Ġserves": 7800,
      "ILY": 7801,
      "Mean": 7802,
      "ĠMACD": 7803,
      "Travlad": 7804,
      "Ġgirl": 7805,
      "à¤Ń": 7806,
      "ĠYork": 7807,
      "Island": 7808,
      "Ġmkt": 7809,
      "ĠðŁĴ¸": 7810,
      "ĠRussia": 7811,
      "169": 7812,
      "xbt": 7813,
      "ĠJohn": 7814,
      "InternetComputer": 7815,
      "Ġframe": 7816,
      "orge": 7817,
      "Ġexpand": 7818,
      "Ġà¤Ĩ": 7819,
      "XVG": 7820,
      "itelist": 7821,
      "Website": 7822,
      "Wolf": 7823,
      "usual": 7824,
      "Ġ86": 7825,
      "à¤µà¤¨": 7826,
      "Ġà¤Ĩà¤°": 7827,
      "Ġ120": 7828,
      "ati": 7829,
      "Ġlikes": 7830,
      "BlueSparrowtoken": 7831,
      "Ġsorry": 7832,
      "WIN": 7833,
      "âĢĭ": 7834,
      "GME": 7835,
      "nam": 7836,
      "Ġsetting": 7837,
      "Strong": 7838,
      "sports": 7839,
      "Ġcore": 7840,
      "102": 7841,
      "ðŁıĨ": 7842,
      "ashes": 7843,
      "Ġclaims": 7844,
      "ĠEnter": 7845,
      "Maybe": 7846,
      "bon": 7847,
      "lecoin": 7848,
      "ĠTokens": 7849,
      "Ġchar": 7850,
      "crash": 7851,
      "ĠAbove": 7852,
      "icon": 7853,
      "games": 7854,
      "Ġoptim": 7855,
      "ĠFr": 7856,
      "feed": 7857,
      "RR": 7858,
      "ension": 7859,
      "ãĥĥ": 7860,
      "ðŁİīðŁİī": 7861,
      "EB": 7862,
      "iti": 7863,
      "Has": 7864,
      "Ġwishes": 7865,
      "VEST": 7866,
      "ĠJack": 7867,
      "430": 7868,
      "OMG": 7869,
      "ĠInternet": 7870,
      "aturday": 7871,
      "spe": 7872,
      "Ġtotally": 7873,
      "Ġsideways": 7874,
      "dao": 7875,
      "340": 7876,
      "urious": 7877,
      "Ġev": 7878,
      "Code": 7879,
      "OfficialTravlad": 7880,
      "Ġincent": 7881,
      "only": 7882,
      "Ġgovernments": 7883,
      "Ġmil": 7884,
      "BN": 7885,
      "ĠGot": 7886,
      "Sto": 7887,
      "ĠðŁĺħ": 7888,
      "Ġmanufact": 7889,
      "ĠKnow": 7890,
      "Ġdamn": 7891,
      "Dec": 7892,
      "ĠReally": 7893,
      "FEGTOKEN": 7894,
      "EWS": 7895,
      "ros": 7896,
      "Ġguidance": 7897,
      "Ġflashed": 7898,
      "Econom": 7899,
      "Ġstorage": 7900,
      "Ġbreakdown": 7901,
      "ĠÂ¥": 7902,
      "ðŁįĢ": 7903,
      "file": 7904,
      "Ġyours": 7905,
      "Ġruns": 7906,
      "Ġâ¬Ĩï¸ı": 7907,
      "ĠAnnounce": 7908,
      "that": 7909,
      "ĠSpot": 7910,
      "amer": 7911,
      "rn": 7912,
      "ðŁĴ²": 7913,
      "Ġtraditional": 7914,
      "Week": 7915,
      "ora": 7916,
      "SJ": 7917,
      "DGB": 7918,
      "ĠBurn": 7919,
      "Ġphysical": 7920,
      "XX": 7921,
      "Ġfresh": 7922,
      "Ġtrap": 7923,
      "isis": 7924,
      "ðŁĳĢðŁĳĢ": 7925,
      "Ġrespons": 7926,
      "ĠTHERE": 7927,
      "Month": 7928,
      "conf": 7929,
      "RAC": 7930,
      "Ġrule": 7931,
      "ĠUsername": 7932,
      "Ġreveal": 7933,
      "Ġdanger": 7934,
      "ĠServices": 7935,
      "cience": 7936,
      "aces": 7937,
      "ANGE": 7938,
      "ĠWhile": 7939,
      "rah": 7940,
      "TGE": 7941,
      "ðŁ¦įðŁ¦į": 7942,
      "İï¸ı": 7943,
      "Girl": 7944,
      "room": 7945,
      "145": 7946,
      "chnologies": 7947,
      "entry": 7948,
      "Ġshall": 7949,
      "Port": 7950,
      "Arbitrage": 7951,
      "HY": 7952,
      "Ġhoriz": 7953,
      "ĠAu": 7954,
      "XLF": 7955,
      "rik": 7956,
      "ency": 7957,
      "AWAY": 7958,
      "NE": 7959,
      "hips": 7960,
      "BABY": 7961,
      "âĹ": 7962,
      "plete": 7963,
      "Ġworked": 7964,
      "Ġmusic": 7965,
      "dj": 7966,
      "fs": 7967,
      "ðŁĴ¹": 7968,
      "holder": 7969,
      "Ġble": 7970,
      "ĠĠĠĠĠĠĠĠĠĠĠĠĠĠ": 7971,
      "Ġrum": 7972,
      "ucky": 7973,
      "Trades": 7974,
      "hu": 7975,
      "Ã°Å¸Å¡": 7976,
      "270": 7977,
      "mers": 7978,
      "Ġsheet": 7979,
      "ancing": 7980,
      "ĠClose": 7981,
      "ĠMorning": 7982,
      "lear": 7983,
      "MCD": 7984,
      "Ġopened": 7985,
      "ĠTri": 7986,
      "WATCH": 7987,
      "ese": 7988,
      "thon": 7989,
      "uman": 7990,
      "Ġtired": 7991,
      "ĠDOGE": 7992,
      "Ġ180": 7993,
      "Ġgiant": 7994,
      "ðĿĹ²ðĿĹ°": 7995,
      "CZ": 7996,
      "åį": 7997,
      "Ġmeaning": 7998,
      "Ġsafety": 7999,
      "Ġmatters": 8000,
      "ĠSince": 8001,
      "Since": 8002,
      "cean": 8003,
      "Cs": 8004,
      "155": 8005,
      "Ġeat": 8006,
      "ãĥĥãĥ": 8007,
      "stein": 8008,
      "ĠAMA": 8009,
      "704": 8010,
      "bled": 8011,
      "ĠPresident": 8012,
      "ination": 8013,
      "Update": 8014,
      "ÂĢ": 8015,
      "ðŁĴ¡": 8016,
      "%+": 8017,
      "Ġrecogn": 8018,
      "Ann": 8019,
      "emy": 8020,
      "Ø±": 8021,
      "Technical": 8022,
      "minal": 8023,
      "rible": 8024,
      "ĠFore": 8025,
      "195": 8026,
      "ĠðŁĳĮ": 8027,
      "Ġguide": 8028,
      "gent": 8029,
      "Ġshitcoins": 8030,
      "Stake": 8031,
      "rdd": 8032,
      "Ġsecured": 8033,
      "187": 8034,
      "oard": 8035,
      "554": 8036,
      "Ġmajority": 8037,
      "lf": 8038,
      "ÅĴ": 8039,
      "MG": 8040,
      "under": 8041,
      "ðŁĹ£ï¸ı": 8042,
      "TRAD": 8043,
      "âĢĿ.": 8044,
      "ocument": 8045,
      "prise": 8046,
      "ĠArt": 8047,
      "UVXY": 8048,
      "itch": 8049,
      "onse": 8050,
      "ĠÂł": 8051,
      "Ġphoto": 8052,
      "ĠUnknown": 8053,
      "ĠDiscord": 8054,
      "Ġaccumulating": 8055,
      "Ġsky": 8056,
      "ĠðŁ¤¯": 8057,
      "Buterin": 8058,
      "ç²": 8059,
      "Ġmethod": 8060,
      "Days": 8061,
      "bukele": 8062,
      "Ġminer": 8063,
      "Ġlightning": 8064,
      "Ġbus": 8065,
      "Ġshot": 8066,
      "SIGNAL": 8067,
      "Never": 8068,
      "Everything": 8069,
      "istory": 8070,
      "itics": 8071,
      "ĠResistance": 8072,
      "HA": 8073,
      "riz": 8074,
      "ICX": 8075,
      "ç²ī": 8076,
      "ĠWAS": 8077,
      "Ġ(@": 8078,
      "128": 8079,
      "alling": 8080,
      "set": 8081,
      "Filecoin": 8082,
      "estyle": 8083,
      "rise": 8084,
      "ĠRemember": 8085,
      "2000": 8086,
      "BX": 8087,
      "retty": 8088,
      "Ġtho": 8089,
      "ĠYTD": 8090,
      "Ġbroad": 8091,
      "pat": 8092,
      "ĠCurrency": 8093,
      "MicroStrategy": 8094,
      "ĠAddress": 8095,
      "Ġpublished": 8096,
      "oz": 8097,
      "ĊĊĠĠĠĠĠĠĠ": 8098,
      "ĠJUST": 8099,
      "ĠðĿĹ¦": 8100,
      "CMCSA": 8101,
      "Ġmath": 8102,
      "ĠTheir": 8103,
      "Ġcompare": 8104,
      "Ġperspective": 8105,
      "vtc": 8106,
      "ibly": 8107,
      "109": 8108,
      "Ġsteal": 8109,
      "Bluesparrowcharity": 8110,
      "ï¸ıâĻ¨": 8111,
      "Ġplanet": 8112,
      "FY": 8113,
      "sub": 8114,
      "ĠðŁ§Ĳ": 8115,
      "uke": 8116,
      "Aud": 8117,
      "ĠIncome": 8118,
      "Ġ87": 8119,
      "SpaceX": 8120,
      "Ġhelps": 8121,
      "idelines": 8122,
      "stable": 8123,
      "micro": 8124,
      "Ġability": 8125,
      "OUS": 8126,
      "StocksTo": 8127,
      "Ġtells": 8128,
      "»ðĿĹ±": 8129,
      "ĠCAN": 8130,
      "ĠNothing": 8131,
      "ayibbukele": 8132,
      "IAM": 8133,
      "Ġjoining": 8134,
      "ĠComing": 8135,
      "Ġ420": 8136,
      "DJI": 8137,
      "ĠWas": 8138,
      "Ġjobs": 8139,
      "Ġcandles": 8140,
      "Vol": 8141,
      "grow": 8142,
      "Lib": 8143,
      "777": 8144,
      "izes": 8145,
      "ĠCT": 8146,
      "UNH": 8147,
      "âĸĪ": 8148,
      "ona": 8149,
      "ĠMain": 8150,
      "Ġacceler": 8151,
      "įï¸ı": 8152,
      "Ġconstant": 8153,
      "cal": 8154,
      "nayibbukele": 8155,
      "ĠðŁĺĬ": 8156,
      "Ġ;)": 8157,
      "silver": 8158,
      "ĠHopefully": 8159,
      "oos": 8160,
      "Ġlack": 8161,
      "ĠDire": 8162,
      "éĢ": 8163,
      "Ġcertainly": 8164,
      "ĠðŁª": 8165,
      "BRK": 8166,
      "Ġcaught": 8167,
      "las": 8168,
      "etoken": 8169,
      "ĠIncre": 8170,
      "armony": 8171,
      "Ġspike": 8172,
      "ĠOwn": 8173,
      "Â°": 8174,
      "CRYPTON": 8175,
      "CF": 8176,
      "Ġreplace": 8177,
      "tv": 8178,
      "ĠIF": 8179,
      "ĠWonder": 8180,
      "Ġspecific": 8181,
      "Â¦": 8182,
      "quare": 8183,
      "Referral": 8184,
      "cake": 8185,
      "ĠHOLD": 8186,
      "CHZ": 8187,
      "ĠRun": 8188,
      "113": 8189,
      "Ġyeah": 8190,
      "MAN": 8191
    },
    "merges": [
      [
        "i",
        "n"
      ],
      [
        "Ġ",
        "#"
      ],
      [
        "Ġ",
        "t"
      ],
      [
        "Ġ",
        "a"
      ],
      [
        "r",
        "e"
      ],
      [
        "i",
        "t"
      ],
      [
        "h",
        "e"
      ],
      [
        "Ġ",
        "$"
      ],
      [
        "o",
        "n"
      ],
      [
        "c",
        "o"
      ],
      [
        "e",
        "r"
      ],
      [
        "s",
        "t"
      ],
      [
        "in",
        "g"
      ],
      [
        "a",
        "n"
      ],
      [
        "Ġ",
        "b"
      ],
      [
        "Ġ",
        "w"
      ],
      [
        "o",
        "r"
      ],
      [
        "i",
        "s"
      ],
      [
        "a",
        "r"
      ],
      [
        "a",
        "t"
      ],
      [
        "Ġt",
        "he"
      ],
      [
        "l",
        "l"
      ],
      [
        "co",
        "in"
      ],
      [
        "o",
        "u"
      ],
      [
        "Ġ",
        "s"
      ],
      [
        "ð",
        "Ł"
      ],
      [
        "Ġ",
        "f"
      ],
      [
        "e",
        "n"
      ],
      [
        "Ġ",
        "p"
      ],
      [
        "Ġ",
        "m"
      ],
      [
        "e",
        "t"
      ],
      [
        "Ġt",
        "o"
      ],
      [
        "t",
        "o"
      ],
      [
        "it",
        "coin"
      ],
      [
        "Ġ",
        "Ġ"
      ],
      [
        "e",
        "s"
      ],
      [
        "r",
        "y"
      ],
      [
        "r",
        "o"
      ],
      [
        "a",
        "l"
      ],
      [
        "n",
        "d"
      ],
      [
        "Ġ",
        "h"
      ],
      [
        "Ġ",
        "c"
      ],
      [
        "ry",
        "p"
      ],
      [
        "e",
        "d"
      ],
      [
        "ryp",
        "to"
      ],
      [
        "Ġ",
        "o"
      ],
      [
        "Ġ",
        "in"
      ],
      [
        "c",
        "e"
      ],
      [
        "Ġ",
        "d"
      ],
      [
        "Ġ",
        "l"
      ],
      [
        "v",
        "e"
      ],
      [
        "Ġ",
        "@"
      ],
      [
        "T",
        "C"
      ],
      [
        "Ġt",
        "h"
      ],
      [
        "B",
        "itcoin"
      ],
      [
        "0",
        "0"
      ],
      [
        "o",
        "w"
      ],
      [
        "a",
        "s"
      ],
      [
        "Ġ",
        "is"
      ],
      [
        "Ġa",
        "nd"
      ],
      [
        "c",
        "k"
      ],
      [
        "Ġ",
        "g"
      ],
      [
        "Ġ",
        "n"
      ],
      [
        "a",
        "y"
      ],
      [
        "B",
        "TC"
      ],
      [
        "Ġ",
        "I"
      ],
      [
        "Ġo",
        "f"
      ],
      [
        "c",
        "h"
      ],
      [
        "a",
        "d"
      ],
      [
        "r",
        "i"
      ],
      [
        "i",
        "on"
      ],
      [
        "c",
        "t"
      ],
      [
        "l",
        "e"
      ],
      [
        "Ġ",
        "y"
      ],
      [
        "u",
        "r"
      ],
      [
        "Ġb",
        "e"
      ],
      [
        "Ġ",
        "T"
      ],
      [
        "Ġ",
        "on"
      ],
      [
        "a",
        "m"
      ],
      [
        "â",
        "Ģ"
      ],
      [
        "Ġf",
        "or"
      ],
      [
        "o",
        "t"
      ],
      [
        "Ġ",
        "u"
      ],
      [
        "Ġ",
        "re"
      ],
      [
        "en",
        "t"
      ],
      [
        "o",
        "l"
      ],
      [
        "v",
        "er"
      ],
      [
        "Ġ",
        "e"
      ],
      [
        "Ġy",
        "ou"
      ],
      [
        "c",
        "rypto"
      ],
      [
        "Ġ",
        "S"
      ],
      [
        "i",
        "ll"
      ],
      [
        "Ġ",
        "A"
      ],
      [
        "Ġ",
        "1"
      ],
      [
        "i",
        "g"
      ],
      [
        "l",
        "y"
      ],
      [
        "Ġ",
        "ðŁ"
      ],
      [
        "Ġ",
        "C"
      ],
      [
        "re",
        "n"
      ],
      [
        "g",
        "e"
      ],
      [
        "u",
        "m"
      ],
      [
        ".",
        "."
      ],
      [
        "i",
        "r"
      ],
      [
        "Ġ",
        "it"
      ],
      [
        "Ġ",
        "2"
      ],
      [
        "Ġ",
        "B"
      ],
      [
        "u",
        "t"
      ],
      [
        "s",
        "e"
      ],
      [
        "ĠĠ",
        "ĠĠ"
      ],
      [
        "i",
        "c"
      ],
      [
        "l",
        "o"
      ],
      [
        "a",
        "in"
      ],
      [
        "i",
        "d"
      ],
      [
        "m",
        "e"
      ],
      [
        "Ġ",
        "st"
      ],
      [
        "a",
        "k"
      ],
      [
        "ur",
        "ren"
      ],
      [
        "Ġ",
        "-"
      ],
      [
        "Ġ",
        "P"
      ],
      [
        "u",
        "n"
      ],
      [
        "p",
        "p"
      ],
      [
        "e",
        "ct"
      ],
      [
        "b",
        "itcoin"
      ],
      [
        "p",
        "s"
      ],
      [
        "Ġ",
        "co"
      ],
      [
        "Ġp",
        "ro"
      ],
      [
        "Ġ",
        "M"
      ],
      [
        "Ġ",
        "Ċ"
      ],
      [
        "o",
        "o"
      ],
      [
        "e",
        "w"
      ],
      [
        "Ġth",
        "is"
      ],
      [
        "e",
        "e"
      ],
      [
        "a",
        "ll"
      ],
      [
        "an",
        "ce"
      ],
      [
        "ar",
        "t"
      ],
      [
        "c",
        "y"
      ],
      [
        "he",
        "re"
      ],
      [
        "C",
        "rypto"
      ],
      [
        "E",
        "T"
      ],
      [
        "l",
        "d"
      ],
      [
        "it",
        "h"
      ],
      [
        "r",
        "ad"
      ],
      [
        "F",
        "T"
      ],
      [
        "ou",
        "t"
      ],
      [
        "or",
        "t"
      ],
      [
        "Ġ",
        "L"
      ],
      [
        "u",
        "s"
      ],
      [
        "Ġ",
        "W"
      ],
      [
        "c",
        "urren"
      ],
      [
        "Ġm",
        "o"
      ],
      [
        "Ġ",
        "("
      ],
      [
        "U",
        "S"
      ],
      [
        "âĢ",
        "Ļ"
      ],
      [
        "h",
        "t"
      ],
      [
        "t",
        "c"
      ],
      [
        "ri",
        "ce"
      ],
      [
        "Ġw",
        "ith"
      ],
      [
        "Ġw",
        "ill"
      ],
      [
        "ar",
        "k"
      ],
      [
        "Ġ",
        "F"
      ],
      [
        "Ġ",
        "D"
      ],
      [
        "Ġa",
        "t"
      ],
      [
        "a",
        "p"
      ],
      [
        "f",
        "t"
      ],
      [
        "o",
        "p"
      ],
      [
        "at",
        "e"
      ],
      [
        "Ġth",
        "at"
      ],
      [
        "i",
        "m"
      ],
      [
        "ET",
        "H"
      ],
      [
        "curren",
        "cy"
      ],
      [
        "in",
        "ance"
      ],
      [
        "er",
        "s"
      ],
      [
        "'",
        "s"
      ],
      [
        "Ġ",
        "N"
      ],
      [
        "Ġa",
        "n"
      ],
      [
        "l",
        "a"
      ],
      [
        "L",
        "A"
      ],
      [
        "T",
        "S"
      ],
      [
        "b",
        "tc"
      ],
      [
        "Ġs",
        "o"
      ],
      [
        "ark",
        "et"
      ],
      [
        "on",
        "e"
      ],
      [
        "Ġa",
        "re"
      ],
      [
        "Â",
        "ł"
      ],
      [
        "u",
        "st"
      ],
      [
        "i",
        "ve"
      ],
      [
        "it",
        "y"
      ],
      [
        "at",
        "ion"
      ],
      [
        "/",
        "/"
      ],
      [
        "Ġw",
        "h"
      ],
      [
        ":",
        "//"
      ],
      [
        "Ġh",
        "a"
      ],
      [
        "Ġ",
        "E"
      ],
      [
        "i",
        "l"
      ],
      [
        "Ġ",
        "H"
      ],
      [
        "Ġw",
        "e"
      ],
      [
        "u",
        "l"
      ],
      [
        "t",
        "ps"
      ],
      [
        "Ġu",
        "p"
      ],
      [
        "Ġs",
        "h"
      ],
      [
        "o",
        "m"
      ],
      [
        "u",
        "y"
      ],
      [
        "j",
        "ect"
      ],
      [
        "Ġ",
        "R"
      ],
      [
        "o",
        "in"
      ],
      [
        "Ġ",
        "v"
      ],
      [
        "US",
        "D"
      ],
      [
        "I",
        "N"
      ],
      [
        "TS",
        "LA"
      ],
      [
        "i",
        "f"
      ],
      [
        "he",
        "r"
      ],
      [
        "A",
        "P"
      ],
      [
        "k",
        "e"
      ],
      [
        "e",
        "l"
      ],
      [
        "Ġa",
        "s"
      ],
      [
        "N",
        "FT"
      ],
      [
        "a",
        "st"
      ],
      [
        "a",
        "b"
      ],
      [
        "t",
        "h"
      ],
      [
        "o",
        "s"
      ],
      [
        "Ġ",
        "G"
      ],
      [
        "ļ",
        "Ģ"
      ],
      [
        "lo",
        "ck"
      ],
      [
        "Ġ",
        "3"
      ],
      [
        "e",
        "ar"
      ],
      [
        "ð",
        "Ŀ"
      ],
      [
        "2",
        "0"
      ],
      [
        "i",
        "st"
      ],
      [
        "here",
        "um"
      ],
      [
        "ar",
        "d"
      ],
      [
        "Ġs",
        "u"
      ],
      [
        "ðŁ",
        "Ĵ"
      ],
      [
        "r",
        "a"
      ],
      [
        "Ġpro",
        "ject"
      ],
      [
        "t",
        "er"
      ],
      [
        "crypto",
        "currency"
      ],
      [
        "ro",
        "m"
      ],
      [
        "Ġh",
        "t"
      ],
      [
        "u",
        "ll"
      ],
      [
        "m",
        "ent"
      ],
      [
        "es",
        "s"
      ],
      [
        "an",
        "d"
      ],
      [
        "d",
        "ro"
      ],
      [
        "Ġht",
        "tps"
      ],
      [
        "Ġe",
        "x"
      ],
      [
        "Ġ",
        "O"
      ],
      [
        "Ġco",
        "m"
      ],
      [
        "d",
        "ay"
      ],
      [
        "Ġ",
        "â"
      ],
      [
        "Ġ",
        "0"
      ],
      [
        "ou",
        "r"
      ],
      [
        "Ġ",
        "j"
      ],
      [
        "ver",
        "y"
      ],
      [
        "o",
        "ck"
      ],
      [
        "on",
        "g"
      ],
      [
        "Ġm",
        "e"
      ],
      [
        "AP",
        "L"
      ],
      [
        "Ġ2",
        "0"
      ],
      [
        "Ġf",
        "rom"
      ],
      [
        "A",
        "APL"
      ],
      [
        "Ġn",
        "ot"
      ],
      [
        "Ġg",
        "o"
      ],
      [
        "Ġa",
        "b"
      ],
      [
        "o",
        "ll"
      ],
      [
        "t",
        "s"
      ],
      [
        "A",
        "M"
      ],
      [
        "ir",
        "dro"
      ],
      [
        "ve",
        "st"
      ],
      [
        "Ġyou",
        "r"
      ],
      [
        "ch",
        "ain"
      ],
      [
        "rad",
        "ing"
      ],
      [
        "u",
        "re"
      ],
      [
        "Ġha",
        "ve"
      ],
      [
        "Ġp",
        "rice"
      ],
      [
        "Ġd",
        "e"
      ],
      [
        "Ġ",
        "&"
      ],
      [
        "i",
        "b"
      ],
      [
        "am",
        "p"
      ],
      [
        "ak",
        "e"
      ],
      [
        "u",
        "e"
      ],
      [
        "Ġ",
        "r"
      ],
      [
        "Ġh",
        "as"
      ],
      [
        "ew",
        "s"
      ],
      [
        "T",
        "he"
      ],
      [
        "Ġn",
        "e"
      ],
      [
        "o",
        "re"
      ],
      [
        "i",
        "ke"
      ],
      [
        "k",
        "en"
      ],
      [
        "ï",
        "¸"
      ],
      [
        "ï¸",
        "ı"
      ],
      [
        "..",
        "."
      ],
      [
        "c",
        "i"
      ],
      [
        "ol",
        "d"
      ],
      [
        "Ġc",
        "on"
      ],
      [
        "Ġd",
        "o"
      ],
      [
        "Ġc",
        "an"
      ],
      [
        "in",
        "k"
      ],
      [
        "t",
        "e"
      ],
      [
        "00",
        "0"
      ],
      [
        "Ġa",
        "ll"
      ],
      [
        "Ġb",
        "y"
      ],
      [
        "Ġm",
        "y"
      ],
      [
        "ðŁ",
        "Ķ"
      ],
      [
        "Ġc",
        "h"
      ],
      [
        "t",
        "hereum"
      ],
      [
        "N",
        "B"
      ],
      [
        "Ġmo",
        "re"
      ],
      [
        "Ġ",
        "4"
      ],
      [
        "a",
        "ck"
      ],
      [
        "Ġn",
        "ow"
      ],
      [
        "ðĿ",
        "Ĳ"
      ],
      [
        "en",
        "d"
      ],
      [
        "Ġ",
        "k"
      ],
      [
        "Ġ",
        "5"
      ],
      [
        "Ġ",
        "out"
      ],
      [
        "o",
        "ge"
      ],
      [
        "an",
        "t"
      ],
      [
        "lock",
        "chain"
      ],
      [
        "Ġa",
        "l"
      ],
      [
        "ðŁ",
        "ļĢ"
      ],
      [
        "'",
        "t"
      ],
      [
        "oo",
        "d"
      ],
      [
        "Ġ",
        "he"
      ],
      [
        "all",
        "y"
      ],
      [
        "!",
        "!"
      ],
      [
        "ou",
        "ld"
      ],
      [
        "n",
        "ing"
      ],
      [
        "irdro",
        "p"
      ],
      [
        "Ġ",
        "or"
      ],
      [
        "re",
        "d"
      ],
      [
        "in",
        "e"
      ],
      [
        "k",
        "s"
      ],
      [
        "i",
        "me"
      ],
      [
        "t",
        "coin"
      ],
      [
        "S",
        "C"
      ],
      [
        "e",
        "m"
      ],
      [
        "Ġu",
        "s"
      ],
      [
        "ĠT",
        "he"
      ],
      [
        "ow",
        "n"
      ],
      [
        "Ġg",
        "et"
      ],
      [
        "E",
        "thereum"
      ],
      [
        "i",
        "a"
      ],
      [
        "Ġl",
        "ike"
      ],
      [
        "e",
        "ll"
      ],
      [
        "ig",
        "ht"
      ],
      [
        "B",
        "inance"
      ],
      [
        "ay",
        "s"
      ],
      [
        "ĠT",
        "h"
      ],
      [
        "Ġb",
        "uy"
      ],
      [
        "2",
        "2"
      ],
      [
        "i",
        "e"
      ],
      [
        "Âł",
        "Âł"
      ],
      [
        "o",
        "d"
      ],
      [
        "ĠĠĠĠ",
        "ĠĠĠĠ"
      ],
      [
        "Ċ",
        "Ċ"
      ],
      [
        "D",
        "A"
      ],
      [
        "Ġ",
        "U"
      ],
      [
        "f",
        "f"
      ],
      [
        "Z",
        "N"
      ],
      [
        "et",
        "h"
      ],
      [
        "Ġc",
        "rypto"
      ],
      [
        "O",
        "G"
      ],
      [
        "q",
        "u"
      ],
      [
        "Ġm",
        "arket"
      ],
      [
        "1",
        "0"
      ],
      [
        "O",
        "N"
      ],
      [
        "re",
        "s"
      ],
      [
        "a",
        "g"
      ],
      [
        "or",
        "k"
      ],
      [
        "Ġ",
        "Bitcoin"
      ],
      [
        "Ġb",
        "ut"
      ],
      [
        "w",
        "e"
      ],
      [
        "AM",
        "ZN"
      ],
      [
        "Ġab",
        "out"
      ],
      [
        "B",
        "NB"
      ],
      [
        "2",
        "1"
      ],
      [
        "n",
        "ft"
      ],
      [
        "is",
        "h"
      ],
      [
        "g",
        "ht"
      ],
      [
        "as",
        "e"
      ],
      [
        "ig",
        "n"
      ],
      [
        "5",
        "0"
      ],
      [
        "Ġ",
        "J"
      ],
      [
        "oll",
        "ow"
      ],
      [
        "Ġ",
        ":"
      ],
      [
        "i",
        "v"
      ],
      [
        "B",
        "SC"
      ],
      [
        "as",
        "h"
      ],
      [
        "re",
        "at"
      ],
      [
        "Ġj",
        "ust"
      ],
      [
        "one",
        "y"
      ],
      [
        "s",
        "h"
      ],
      [
        "i",
        "p"
      ],
      [
        "S",
        "P"
      ],
      [
        "an",
        "ge"
      ],
      [
        "Ġt",
        "e"
      ],
      [
        "Ġw",
        "as"
      ],
      [
        "e",
        "c"
      ],
      [
        "M",
        "A"
      ],
      [
        "ion",
        "s"
      ],
      [
        "un",
        "ity"
      ],
      [
        "Ġp",
        "l"
      ],
      [
        "Ġl",
        "e"
      ],
      [
        "st",
        "ock"
      ],
      [
        "1",
        "9"
      ],
      [
        "Ġ",
        "Y"
      ],
      [
        "oo",
        "k"
      ],
      [
        "a",
        "i"
      ],
      [
        "id",
        "e"
      ],
      [
        "ro",
        "w"
      ],
      [
        "pp",
        "ort"
      ],
      [
        "E",
        "R"
      ],
      [
        "A",
        "irdrop"
      ],
      [
        "x",
        "t"
      ],
      [
        "am",
        "e"
      ],
      [
        "an",
        "s"
      ],
      [
        "he",
        "n"
      ],
      [
        "Ġs",
        "ee"
      ],
      [
        "Ġu",
        "n"
      ],
      [
        "Ġ",
        "6"
      ],
      [
        "i",
        "z"
      ],
      [
        "ĠI",
        "n"
      ],
      [
        "it",
        "e"
      ],
      [
        "G",
        "O"
      ],
      [
        "Ġt",
        "ime"
      ],
      [
        "I",
        "n"
      ],
      [
        "Ġthe",
        "y"
      ],
      [
        "3",
        "0"
      ],
      [
        "T",
        "h"
      ],
      [
        "C",
        "oin"
      ],
      [
        "Ġa",
        "d"
      ],
      [
        "ou",
        "nd"
      ],
      [
        "co",
        "m"
      ],
      [
        "1",
        "5"
      ],
      [
        "Ġa",
        "m"
      ],
      [
        "Ġt",
        "r"
      ],
      [
        "Ġ",
        "if"
      ],
      [
        "i",
        "es"
      ],
      [
        "p",
        "t"
      ],
      [
        "c",
        "c"
      ],
      [
        "ðŁ",
        "ĩ"
      ],
      [
        "D",
        "e"
      ],
      [
        "o",
        "st"
      ],
      [
        "p",
        "er"
      ],
      [
        "C",
        "h"
      ],
      [
        "d",
        "e"
      ],
      [
        "USD",
        "T"
      ],
      [
        "1",
        "8"
      ],
      [
        "A",
        "R"
      ],
      [
        "a",
        "u"
      ],
      [
        "Ġ",
        "BTC"
      ],
      [
        "a",
        "w"
      ],
      [
        "u",
        "b"
      ],
      [
        "ut",
        "ure"
      ],
      [
        "T",
        "R"
      ],
      [
        "Ġa",
        "g"
      ],
      [
        "Ġ",
        "V"
      ],
      [
        "an",
        "k"
      ],
      [
        "e",
        "st"
      ],
      [
        "1",
        "6"
      ],
      [
        "Ġm",
        "in"
      ],
      [
        "s",
        "p"
      ],
      [
        "Ġw",
        "ee"
      ],
      [
        "Ġ",
        "âĢ"
      ],
      [
        "S",
        "H"
      ],
      [
        "Ġon",
        "e"
      ],
      [
        "re",
        "e"
      ],
      [
        "1",
        "7"
      ],
      [
        "ðŁĶ",
        "¥"
      ],
      [
        "ðŁ",
        "ĳ"
      ],
      [
        "2",
        "4"
      ],
      [
        "Ġbe",
        "en"
      ],
      [
        "Ġn",
        "ew"
      ],
      [
        "ĠP",
        "rice"
      ],
      [
        "d",
        "oge"
      ],
      [
        "et",
        "a"
      ],
      [
        "E",
        "S"
      ],
      [
        "t",
        "rading"
      ],
      [
        "Ġs",
        "p"
      ],
      [
        "Ġcom",
        "p"
      ],
      [
        "a",
        "re"
      ],
      [
        "Ġb",
        "itcoin"
      ],
      [
        "Ġo",
        "ver"
      ],
      [
        "Ġso",
        "me"
      ],
      [
        "Ġg",
        "ood"
      ],
      [
        "a",
        "z"
      ],
      [
        "a",
        "ge"
      ],
      [
        "i",
        "o"
      ],
      [
        "T",
        "o"
      ],
      [
        "a",
        "v"
      ],
      [
        "or",
        "m"
      ],
      [
        "Ġwh",
        "at"
      ],
      [
        "e",
        "op"
      ],
      [
        "A",
        "L"
      ],
      [
        "Ġto",
        "day"
      ],
      [
        "F",
        "i"
      ],
      [
        "Ġ1",
        "0"
      ],
      [
        "al",
        "tcoin"
      ],
      [
        "or",
        "s"
      ],
      [
        "or",
        "ld"
      ],
      [
        "Ġd",
        "own"
      ],
      [
        "Ġ",
        "here"
      ],
      [
        "o",
        "ve"
      ],
      [
        "rad",
        "e"
      ],
      [
        "GO",
        "OG"
      ],
      [
        "1",
        "2"
      ],
      [
        "ðŁĴ",
        "İ"
      ],
      [
        "Ġe",
        "very"
      ],
      [
        "eop",
        "le"
      ],
      [
        "t",
        "her"
      ],
      [
        "ig",
        "h"
      ],
      [
        "m",
        "unity"
      ],
      [
        "b",
        "lockchain"
      ],
      [
        "i",
        "ce"
      ],
      [
        "Ġth",
        "an"
      ],
      [
        "b",
        "er"
      ],
      [
        "A",
        "N"
      ],
      [
        "ak",
        "ing"
      ],
      [
        "O",
        "R"
      ],
      [
        "s",
        "o"
      ],
      [
        "et",
        "s"
      ],
      [
        "1",
        "4"
      ],
      [
        "a",
        "ct"
      ],
      [
        "al",
        "e"
      ],
      [
        "ĠI",
        "t"
      ],
      [
        "us",
        "k"
      ],
      [
        "Ġ",
        "\""
      ],
      [
        "1",
        "3"
      ],
      [
        "Ġy",
        "ear"
      ],
      [
        "f",
        "ore"
      ],
      [
        "n",
        "ow"
      ],
      [
        "a",
        "c"
      ],
      [
        "Ġd",
        "on"
      ],
      [
        "Ġin",
        "vest"
      ],
      [
        "stock",
        "s"
      ],
      [
        "Ġ",
        "ri"
      ],
      [
        "b",
        "s"
      ],
      [
        "Ġan",
        "y"
      ],
      [
        "ĠðŁ",
        "ļĢ"
      ],
      [
        "Ġgo",
        "ing"
      ],
      [
        "an",
        "g"
      ],
      [
        "an",
        "y"
      ],
      [
        "Ġ",
        "+"
      ],
      [
        "l",
        "ow"
      ],
      [
        "2",
        "5"
      ],
      [
        "ĠC",
        "h"
      ],
      [
        "in",
        "d"
      ],
      [
        "v",
        "en"
      ],
      [
        "ou",
        "n"
      ],
      [
        "ðŁ",
        "ĵ"
      ],
      [
        "Ġ",
        "very"
      ],
      [
        "Ġth",
        "ink"
      ],
      [
        "Ġ",
        "."
      ],
      [
        "at",
        "ed"
      ],
      [
        "as",
        "s"
      ],
      [
        "B",
        "A"
      ],
      [
        "Ġ",
        "our"
      ],
      [
        "N",
        "F"
      ],
      [
        "ou",
        "s"
      ],
      [
        "ab",
        "le"
      ],
      [
        "Ġ",
        "7"
      ],
      [
        "9",
        "9"
      ],
      [
        "Ġb",
        "ull"
      ],
      [
        "Ġup",
        "d"
      ],
      [
        "W",
        "h"
      ],
      [
        "ĠðŁ",
        "Ĵ"
      ],
      [
        "Ġw",
        "ould"
      ],
      [
        "c",
        "ent"
      ],
      [
        "ts",
        "la"
      ],
      [
        "t",
        "ing"
      ],
      [
        "Ġ",
        "USD"
      ],
      [
        "i",
        "ck"
      ],
      [
        "i",
        "al"
      ],
      [
        "Ġthe",
        "ir"
      ],
      [
        "Ġw",
        "hen"
      ],
      [
        "Ġp",
        "eople"
      ],
      [
        "w",
        "ork"
      ],
      [
        "ĠĠ",
        "Ġ"
      ],
      [
        "2",
        "3"
      ],
      [
        "4",
        "0"
      ],
      [
        "i",
        "ch"
      ],
      [
        "w",
        "it"
      ],
      [
        "Ġ",
        "i"
      ],
      [
        "Ġl",
        "ong"
      ],
      [
        ")",
        ":"
      ],
      [
        "Ġl",
        "ast"
      ],
      [
        "an",
        "o"
      ],
      [
        "g",
        "h"
      ],
      [
        "um",
        "p"
      ],
      [
        "urren",
        "t"
      ],
      [
        "E",
        "N"
      ],
      [
        "S",
        "h"
      ],
      [
        "ft",
        "er"
      ],
      [
        "Ġt",
        "ry"
      ],
      [
        "Ġn",
        "o"
      ],
      [
        "Ġ",
        "="
      ],
      [
        "f",
        "orm"
      ],
      [
        "Ġh",
        "ow"
      ],
      [
        "ill",
        "ion"
      ],
      [
        "f",
        "it"
      ],
      [
        "ĠTh",
        "is"
      ],
      [
        "Ġg",
        "reat"
      ],
      [
        "Ġk",
        "now"
      ],
      [
        "f",
        "e"
      ],
      [
        "at",
        "es"
      ],
      [
        "er",
        "t"
      ],
      [
        "Ġm",
        "oney"
      ],
      [
        "Ġne",
        "xt"
      ],
      [
        "it",
        "al"
      ],
      [
        "Ġp",
        "er"
      ],
      [
        "S",
        "t"
      ],
      [
        "ĠW",
        "h"
      ],
      [
        "o",
        "g"
      ],
      [
        "Ġe",
        "ar"
      ],
      [
        "Ġf",
        "uture"
      ],
      [
        "Ġwee",
        "k"
      ],
      [
        "I",
        "C"
      ],
      [
        "Ġb",
        "ack"
      ],
      [
        "Ġsh",
        "ort"
      ],
      [
        "Ġit",
        "s"
      ],
      [
        "ign",
        "al"
      ],
      [
        "in",
        "vest"
      ],
      [
        "Ġ",
        "im"
      ],
      [
        "Ġh",
        "old"
      ],
      [
        "ĠR",
        "e"
      ],
      [
        "ðŁ",
        "ĺ"
      ],
      [
        "ðŁļĢ",
        "ðŁļĢ"
      ],
      [
        "es",
        "la"
      ],
      [
        "at",
        "ch"
      ],
      [
        "1",
        "1"
      ],
      [
        "Ġwh",
        "o"
      ],
      [
        "%",
        ")"
      ],
      [
        "Ġcon",
        "t"
      ],
      [
        "is",
        "s"
      ],
      [
        "ver",
        "se"
      ],
      [
        "W",
        "e"
      ],
      [
        "Ġa",
        "r"
      ],
      [
        "ĠS",
        "t"
      ],
      [
        "u",
        "d"
      ],
      [
        "g",
        "et"
      ],
      [
        "Ġof",
        "f"
      ],
      [
        "Ġon",
        "ly"
      ],
      [
        "on",
        "d"
      ],
      [
        "R",
        "P"
      ],
      [
        "w",
        "ap"
      ],
      [
        "um",
        "e"
      ],
      [
        "2",
        "8"
      ],
      [
        "Ġ",
        "8"
      ],
      [
        "r",
        "al"
      ],
      [
        "a",
        "x"
      ],
      [
        "i",
        "le"
      ],
      [
        "p",
        "ort"
      ],
      [
        "2",
        "9"
      ],
      [
        "Ġst",
        "ill"
      ],
      [
        "b",
        "inance"
      ],
      [
        "S",
        "T"
      ],
      [
        "Ġd",
        "ay"
      ],
      [
        "Ġex",
        "p"
      ],
      [
        "ci",
        "al"
      ],
      [
        "U",
        "N"
      ],
      [
        "O",
        "T"
      ],
      [
        "nd",
        "er"
      ],
      [
        "M",
        "S"
      ],
      [
        "Ġthe",
        "re"
      ],
      [
        "O",
        "IN"
      ],
      [
        "ðŁ",
        "¤"
      ],
      [
        "Ġne",
        "ed"
      ],
      [
        "Ġl",
        "ow"
      ],
      [
        "B",
        "I"
      ],
      [
        "O",
        "L"
      ],
      [
        "re",
        "nd"
      ],
      [
        "A",
        "l"
      ],
      [
        "ĠðŁ",
        "ĳ"
      ],
      [
        "pp",
        "le"
      ],
      [
        "ĠðŁ",
        "ĺ"
      ],
      [
        "Ġsu",
        "pport"
      ],
      [
        "et",
        "work"
      ],
      [
        "Ġ",
        "en"
      ],
      [
        "Ġl",
        "ook"
      ],
      [
        "Q",
        "Q"
      ],
      [
        "ol",
        "ume"
      ],
      [
        "Ġin",
        "to"
      ],
      [
        "Ġb",
        "et"
      ],
      [
        "X",
        "RP"
      ],
      [
        "un",
        "t"
      ],
      [
        "o",
        "on"
      ],
      [
        "ct",
        "ion"
      ],
      [
        "2",
        "6"
      ],
      [
        "Ġst",
        "r"
[...]
